<pad>	0
<unk>	0
<s>	0
</s>	0
<2hi>	0
<2ta>	0
.	-3.25661
,	-3.56428
▁the	-4.17838
s	-4.19981
▁	-4.23645
▁of	-4.64392
▁के	-4.68702
▁to	-4.81968
▁है	-4.86761
▁and	-4.89673
?	-4.91169
▁-	-4.94687
'	-4.99058
।	-4.99534
▁a	-5.07318
▁और	-5.08431
▁में	-5.09481
▁in	-5.18138
▁की	-5.24724
▁I	-5.25886
▁you	-5.28945
)	-5.31104
▁(	-5.37329
▁is	-5.4369
▁से	-5.4631
▁को	-5.55378
▁का	-5.6481
-	-5.65995
t	-5.67595
!	-5.74717
▁that	-5.77513
▁for	-5.83135
▁it	-5.91601
ों	-5.94823
ing	-5.96024
ed	-5.97066
▁हैं	-6.0457
▁be	-6.06505
▁पर	-6.08871
▁कि	-6.09119
...	-6.1267
ी	-6.18419
▁एक	-6.19364
▁लिए	-6.20396
▁not	-6.2068
▁on	-6.207
▁The	-6.24866
d	-6.26392
▁are	-6.26488
▁with	-6.31189
▁तो	-6.35763
▁नहीं	-6.36372
▁have	-6.36733
▁was	-6.38407
▁this	-6.40368
▁जो	-6.41134
m	-6.45795
▁भी	-6.48024
▁हो	-6.52049
:	-6.53798
▁or	-6.57603
வ	-6.58864
▁as	-6.58913
▁"	-6.5905
▁will	-6.59759
க	-6.60828
▁ने	-6.61958
▁me	-6.62349
▁'	-6.62587
re	-6.62797
▁they	-6.62957
▁कर	-6.64396
▁किया	-6.6505
▁from	-6.65388
த	-6.65565
न	-6.65678
▁You	-6.66976
▁by	-6.67519
▁your	-6.69109
▁यह	-6.69362
ம	-6.69481
▁ही	-6.69756
क	-6.70674
;	-6.72733
▁he	-6.73447
▁we	-6.75567
ा	-6.76164
▁इस	-6.76447
ப	-6.77639
▁them	-6.78271
▁He	-6.79435
ता	-6.7961
ly	-6.79616
▁न	-6.8103
▁And	-6.83452
er	-6.84008
▁या	-6.84149
▁वह	-6.84615
▁We	-6.85152
▁s	-6.85841
▁करने	-6.86878
▁all	-6.86985
▁do	-6.88062
▁has	-6.88243
▁It	-6.89378
▁who	-6.90377
y	-6.91619
▁A	-6.92593
▁his	-6.94256
ய	-6.94408
▁at	-6.95178
▁can	-6.95316
▁an	-6.97725
▁my	-6.97763
ச	-7.01241
े	-7.013
र	-7.01484
▁which	-7.0478
▁their	-7.05182
▁अपने	-7.06245
▁था	-7.06902
ம்	-7.07424
ल	-7.0757
▁what	-7.09123
▁know	-7.12017
म	-7.12906
ना	-7.13145
▁one	-7.13204
a	-7.13465
ने	-7.13638
ll	-7.15535
al	-7.15879
▁him	-7.17523
▁but	-7.18358
ன	-7.18912
▁वे	-7.19655
e	-7.20944
▁तुम	-7.21649
▁गया	-7.22069
in	-7.22957
▁so	-7.23601
▁तथा	-7.25111
▁ன்	-7.25985
त	-7.26155
ந	-7.26287
▁like	-7.26447
▁कुछ	-7.27935
▁out	-7.2818
▁up	-7.28191
ல	-7.29189
▁there	-7.29489
स	-7.29903
▁किसी	-7.3135
▁What	-7.31382
▁हम	-7.31606
▁no	-7.32343
க்க	-7.32893
▁been	-7.34915
ं	-7.35057
▁साथ	-7.35422
ட	-7.35562
▁were	-7.37039
▁about	-7.37872
à	-7.38443
▁என்ன	-7.38575
▁Allah	-7.39228
▁.	-7.39335
%	-7.39731
▁रूप	-7.40551
▁if	-7.4057
▁कोई	-7.40747
▁had	-7.41363
▁நீ	-7.42643
▁ம்	-7.42775
▁उनके	-7.4414
ित	-7.44238
▁थे	-7.45939
i	-7.46335
ல்	-7.46381
▁No	-7.47018
▁द्वारा	-7.47526
▁just	-7.47916
▁In	-7.48263
"	-7.48808
▁when	-7.49118
ப்ப	-7.49333
ve	-7.49542
n	-7.49596
]	-7.49598
▁people	-7.50778
/	-7.50792
▁here	-7.51402
▁But	-7.51585
▁करते	-7.51978
▁our	-7.52266
▁நன்	-7.52452
என்ன	-7.52504
▁don	-7.5254
▁India	-7.5268
▁लोग	-7.52914
▁said	-7.53011
▁जब	-7.53449
▁लोगों	-7.53567
▁This	-7.5424
▁आ	-7.54419
▁any	-7.54637
▁दिया	-7.54797
es	-7.55236
▁जा	-7.55554
▁[	-7.5606
r	-7.56299
▁her	-7.56379
▁भारत	-7.56535
ट	-7.56586
அத	-7.56829
▁right	-7.5754
▁अ	-7.5782
द	-7.57862
▁time	-7.57891
प	-7.57942
இல்ல	-7.57982
▁So	-7.58526
▁go	-7.59027
▁तक	-7.5995
▁S	-7.60314
व	-7.60472
▁get	-7.61756
▁அத	-7.61813
ன்	-7.62385
ர	-7.63343
▁would	-7.63881
ो	-7.6394
▁फिर	-7.64224
▁those	-7.64363
தன்	-7.64615
▁சர	-7.64883
▁1	-7.64904
▁நீங்கள்	-7.65331
▁ये	-7.65934
▁us	-7.66024
ஒர	-7.66337
▁God	-7.66791
▁करें	-7.66848
▁जाता	-7.6828
ब	-7.68456
வர	-7.69108
▁कहा	-7.69322
th	-7.7012
कर	-7.7018
▁क्या	-7.70392
த்த	-7.70758
▁other	-7.71569
or	-7.71669
▁उसके	-7.71712
கள்	-7.72956
▁करना	-7.73636
▁They	-7.74839
▁अल्लाह	-7.74911
ते	-7.74912
ियों	-7.75413
▁த	-7.76051
▁उस	-7.7694
▁अपनी	-7.77698
▁That	-7.78093
▁ख़ुदा	-7.78868
▁रहे	-7.79233
▁only	-7.79701
▁shall	-7.80827
▁also	-7.81338
▁re	-7.81679
▁then	-7.81854
ज	-7.82083
▁हुए	-7.82213
▁should	-7.82894
▁आप	-7.8303
▁more	-7.83156
ation	-7.83419
▁some	-7.83638
▁मैं	-7.83957
நன்	-7.84019
▁उन	-7.84184
▁उन्हें	-7.84798
ங்க	-7.85177
▁க	-7.8567
ह	-7.85805
▁करता	-7.85847
▁good	-7.86325
▁होता	-7.87135
▁she	-7.87773
▁over	-7.87888
ें	-7.87896
▁now	-7.89511
▁रहा	-7.8963
▁C	-7.89789
ला	-7.90358
▁/	-7.90407
श	-7.90465
▁थी	-7.90498
▁back	-7.9077
▁see	-7.90975
▁இல்ல	-7.91035
▁come	-7.91266
▁may	-7.91295
▁सकता	-7.91404
ि	-7.92058
▁उसे	-7.921
▁ட	-7.92217
▁did	-7.92257
▁ர	-7.92287
S	-7.92372
रा	-7.92443
▁say	-7.92748
▁ய	-7.93107
▁दो	-7.93311
▁Lord	-7.93557
▁want	-7.93844
ः	-7.94174
ओं	-7.94555
I	-7.94682
▁Yeah	-7.95085
▁_	-7.9523
▁என்	-7.95305
▁“	-7.95591
▁இத	-7.95849
▁into	-7.96004
▁बहुत	-7.9635
an	-7.96393
▁its	-7.96642
st	-7.96871
கள	-7.97005
▁समय	-7.97582
▁ப	-7.97773
▁made	-7.98138
▁need	-7.98168
நீ	-7.9831
ग	-7.98399
ர்	-7.98455
▁व	-7.99067
य	-7.99843
▁B	-7.99983
▁think	-7.99989
ங்கள்	-8.00477
▁two	-8.01493
on	-8.0231
्य	-8.02317
l	-8.02331
▁If	-8.02963
▁வ	-8.03405
▁such	-8.03938
▁make	-8.04425
▁कार्य	-8.04663
▁க்க	-8.05485
▁than	-8.05557
▁19	-8.05777
."	-8.06668
என்ற	-8.06741
▁under	-8.06747
ती	-8.06896
c	-8.06996
le	-8.07229
ण	-8.07422
▁ம	-8.07479
री	-8.07485
▁life	-8.07563
▁तरह	-8.07761
▁बात	-8.07823
▁way	-8.07956
▁down	-8.08065
▁बाद	-8.08182
▁these	-8.08187
▁अधिक	-8.08641
▁उन्होंने	-8.08697
▁वाले	-8.08717
ட்ட	-8.09192
▁could	-8.09548
b	-8.0973
▁स	-8.09801
▁There	-8.09806
▁हुआ	-8.1011
o	-8.10114
▁got	-8.10375
▁पहले	-8.10764
▁day	-8.11137
ar	-8.11283
▁All	-8.11436
िक	-8.11479
வத	-8.11504
ए	-8.11576
▁before	-8.11824
இத	-8.11852
▁take	-8.11871
ई	-8.12232
▁man	-8.12546
’	-8.12818
▁हमने	-8.12962
h	-8.13131
या	-8.13303
ड	-8.13498
▁पास	-8.13542
▁2	-8.13761
▁இந்த	-8.14371
யம்	-8.14643
▁ல	-8.14785
il	-8.15113
▁Oh	-8.15301
ment	-8.15369
k	-8.1542
able	-8.15736
இர	-8.15787
▁होगा	-8.16191
▁”	-8.1655
▁♪	-8.16591
▁दी	-8.16638
ச்ச	-8.16921
▁उनकी	-8.16958
▁after	-8.17424
▁गई	-8.17463
▁new	-8.17988
கட	-8.18237
ers	-8.18277
▁गए	-8.18313
▁वि	-8.18336
லம்	-8.18512
▁दिन	-8.18537
A	-8.18734
▁F	-8.18876
▁यदि	-8.19377
ख	-8.19395
ur	-8.19449
▁ச	-8.19567
▁ओर	-8.1983
▁तुम्हारे	-8.20301
▁काम	-8.20703
का	-8.20748
▁She	-8.20975
▁सभी	-8.21055
▁how	-8.21254
கட்ட	-8.2197
ु	-8.22028
ion	-8.22225
▁प्र	-8.2251
▁इन	-8.22537
க்	-8.22647
O	-8.22678
▁हमारे	-8.22949
ity	-8.22951
▁राष्ट्रपति	-8.23002
▁P	-8.23064
▁am	-8.23161
▁Do	-8.23211
இரக்க	-8.2361
▁होने	-8.23752
▁To	-8.23794
ic	-8.24108
▁ऐसे	-8.24518
▁अन्य	-8.2516
▁going	-8.25188
f	-8.25509
▁work	-8.25632
▁ல்	-8.25962
▁un	-8.26275
▁world	-8.26436
▁Re	-8.26945
▁सकते	-8.27097
▁where	-8.27194
▁प्राप्त	-8.27244
▁very	-8.27322
▁प्रकार	-8.27439
▁D	-8.27535
it	-8.28014
▁चाहिए	-8.28077
தர	-8.29178
▁being	-8.29318
▁कम	-8.2934
▁ब	-8.29599
सा	-8.29608
▁प्रति	-8.29622
▁दे	-8.29806
என்	-8.2984
ीय	-8.30109
्	-8.30339
சர	-8.30414
ma	-8.30641
▁नाम	-8.30931
▁इसके	-8.30945
▁de	-8.31016
ज़	-8.31052
▁first	-8.3108
▁Okay	-8.31258
▁क्षेत्र	-8.31333
யல்	-8.31493
▁म	-8.31538
வன்	-8.31779
▁well	-8.32014
सी	-8.32177
¤	-8.32559
▁&	-8.32782
▁किए	-8.32973
ड़	-8.33036
▁even	-8.33062
D	-8.33322
▁ர்	-8.3338
ta	-8.33719
பர	-8.34033
g	-8.34092
▁E	-8.34107
▁होती	-8.3441
▁उसकी	-8.34498
el	-8.34652
▁सब	-8.34968
▁அவர்	-8.36584
ent	-8.36669
▁जाने	-8.36994
▁through	-8.37239
▁भारतीय	-8.37356
li	-8.37447
ri	-8.37453
नी	-8.37461
▁help	-8.37753
▁His	-8.37929
▁name	-8.38016
P	-8.38275
▁ले	-8.38312
▁देश	-8.38941
▁एवं	-8.39014
ப்	-8.39492
▁years	-8.39572
▁G	-8.40035
▁सं	-8.40066
ஜ	-8.4012
च	-8.40213
ற	-8.40489
பட	-8.40503
வட	-8.40568
ra	-8.40645
at	-8.40918
na	-8.41143
▁विकास	-8.41307
▁ந	-8.41419
▁ऐसा	-8.41493
▁अगर	-8.41559
▁Well	-8.4156
मा	-8.41662
▁gonna	-8.41713
वा	-8.41852
▁too	-8.41938
▁कारण	-8.4225
நீங்கள்	-8.42253
எனக்க	-8.42611
▁अब	-8.4284
▁(_	-8.43019
மக	-8.43048
▁How	-8.43175
மன	-8.43175
C	-8.43242
▁My	-8.43345
के	-8.43382
▁Indian	-8.43436
▁क	-8.43592
▁give	-8.4371
▁सरकार	-8.4373
▁M	-8.43731
B	-8.43764
▁does	-8.43824
▁करो	-8.44354
▁ஆனல்	-8.44466
ली	-8.44565
▁मुझे	-8.4493
us	-8.45034
▁because	-8.45203
▁O	-8.45208
ti	-8.45255
▁3	-8.45937
ter	-8.46507
▁रसूल	-8.46622
u	-8.46654
ு	-8.46666
ै	-8.46734
▁हर	-8.46738
▁Hey	-8.46753
▁हुई	-8.46765
to	-8.46788
▁நம்	-8.47385
p	-8.47448
w	-8.47477
T	-8.4767
▁let	-8.47777
▁never	-8.48183
en	-8.48274
▁used	-8.48315
▁K	-8.48562
▁many	-8.4874
▁love	-8.48909
▁எனக்க	-8.49171
▁राज्य	-8.49466
▁प	-8.49564
▁something	-8.49994
ய்	-8.50434
एं	-8.50444
வர்	-8.50475
ate	-8.50887
▁Yes	-8.51188
ne	-8.51524
फ	-8.51527
▁believe	-8.51871
▁उसने	-8.52628
▁find	-8.5283
▁e	-8.52982
▁पा	-8.53392
ले	-8.53659
▁must	-8.53675
▁much	-8.5373
▁away	-8.53771
▁place	-8.54073
▁लेकिन	-8.54265
▁When	-8.54459
▁...	-8.54477
am	-8.54478
▁जाती	-8.54595
▁ட்ட	-8.55006
se	-8.55037
▁L	-8.55129
▁लिया	-8.55206
▁ஆம்	-8.5537
ul	-8.5563
▁दोनों	-8.55661
▁அந்த	-8.5568
மட	-8.55699
id	-8.55792
▁ன	-8.55884
வண்டம்	-8.55951
▁country	-8.56209
ंग	-8.56287
▁वर्ष	-8.56459
▁व्यक्ति	-8.56631
▁मे	-8.56856
▁great	-8.57106
▁off	-8.57118
ness	-8.5742
▁between	-8.57471
▁own	-8.57627
▁तुम्हें	-8.57638
▁Let	-8.57793
▁जीवन	-8.5785
வந்த	-8.58026
பத	-8.58079
▁tell	-8.58789
சல்ல	-8.58933
வம்	-8.58995
▁every	-8.59226
▁த்த	-8.59291
▁जिस	-8.59615
ू	-8.59668
▁रही	-8.5967
▁ல்ல	-8.59728
ந்த	-8.60107
▁T	-8.60291
ir	-8.60357
▁होते	-8.60587
▁‘	-8.60752
▁त	-8.61006
man	-8.61126
▁ऐसी	-8.61203
▁most	-8.61274
▁For	-8.61488
age	-8.61698
as	-8.6192
த்தல்	-8.62002
▁Come	-8.62127
वि	-8.62132
ive	-8.62232
▁year	-8.62288
प्र	-8.62404
▁प्रदान	-8.62667
▁बारे	-8.62698
ऐ	-8.62744
lo	-8.62757
▁नि	-8.62804
et	-8.6285
▁Why	-8.62981
▁ற	-8.63152
▁अपना	-8.63327
को	-8.63501
la	-8.63513
ॉ	-8.63741
▁President	-8.63811
ce	-8.63847
▁बीच	-8.64024
ty	-8.64231
▁मु	-8.64371
▁really	-8.64385
ன்ன	-8.64409
▁ग	-8.64532
▁part	-8.64688
▁5	-8.64748
▁b	-8.64816
▁à	-8.64821
कार	-8.64979
x	-8.65045
▁ए	-8.65555
▁long	-8.65996
▁वाला	-8.66048
கற	-8.66288
▁द	-8.66363
▁per	-8.66365
▁ஒர	-8.66478
अ	-8.66523
▁didn	-8.66545
▁उ	-8.66632
▁As	-8.66735
से	-8.66769
▁Government	-8.66784
இந்த	-8.67407
▁Who	-8.67418
▁R	-8.67476
ance	-8.67747
▁बना	-8.67766
▁things	-8.67888
ஸ்	-8.68049
த்தன்	-8.68071
▁जैसे	-8.68293
▁सु	-8.683
டன்	-8.68324
▁सी	-8.68553
un	-8.68613
ch	-8.68665
▁end	-8.68718
im	-8.68852
मान	-8.6898
ro	-8.69
z	-8.6901
▁Go	-8.69111
de	-8.6928
▁श	-8.69413
M	-8.69463
।"	-8.69524
ol	-8.69554
▁ஓ	-8.69721
▁4	-8.69857
ting	-8.70074
ary	-8.70231
▁Ma	-8.70236
▁against	-8.70263
ரக்க	-8.70476
▁उसका	-8.70674
est	-8.70776
ள	-8.70831
ட்	-8.70859
▁உன்	-8.70884
▁use	-8.70918
▁பர	-8.71142
िया	-8.71336
▁mean	-8.7146
▁ईमान	-8.71676
▁भाग	-8.71733
te	-8.72046
E	-8.72171
▁இங்க	-8.72297
பல	-8.72404
थ	-8.72424
▁look	-8.73218
▁An	-8.7328
▁upon	-8.73367
▁बा	-8.73498
▁N	-8.73597
▁?	-8.73843
▁water	-8.73927
▁little	-8.74041
▁रब	-8.74166
दा	-8.74226
இங்க	-8.7436
ाई	-8.74587
▁home	-8.74625
▁जाएगा	-8.74831
▁श्री	-8.74867
▁same	-8.75255
▁केवल	-8.75524
जी	-8.75683
क्ष	-8.75815
िंग	-8.75842
्स	-8.75882
▁Act	-8.76256
▁हमें	-8.76265
▁Then	-8.76375
▁कह	-8.7659
▁बार	-8.76952
▁उनका	-8.77022
me	-8.77025
▁मेरे	-8.77074
भ	-8.77085
▁Don	-8.77202
▁thing	-8.77459
की	-8.77605
जा	-8.77893
▁Me	-8.78019
▁उपयोग	-8.78074
▁came	-8.78081
▁last	-8.78346
▁18	-8.78605
▁call	-8.7865
▁earth	-8.78665
▁doing	-8.78685
▁H	-8.78813
the	-8.78835
▁पूर्व	-8.78875
▁हूँ	-8.79282
▁ज	-8.79321
▁जिसमें	-8.79463
▁ஹ	-8.79715
ஹ	-8.79763
पी	-8.79901
▁d	-8.80107
आ	-8.80173
▁set	-8.80346
F	-8.80956
sh	-8.81061
ौ	-8.81294
0	-8.81589
▁वही	-8.81973
▁found	-8.82045
यों	-8.8234
வல	-8.824
சய்ய	-8.82631
▁पैदा	-8.82637
க்கம்	-8.82745
▁again	-8.82779
▁बे	-8.82802
▁order	-8.82995
▁both	-8.83003
▁आज	-8.83025
வல்ல	-8.83057
▁Your	-8.83122
▁given	-8.83225
G	-8.83278
v	-8.83424
▁देने	-8.83524
ant	-8.83559
▁why	-8.83592
▁three	-8.83652
▁प्रयोग	-8.8368
▁another	-8.83701
ி	-8.83846
▁सबसे	-8.83856
▁person	-8.83966
▁वाली	-8.84213
ஸ	-8.84275
▁co	-8.84508
▁ताकि	-8.84558
▁உங்கள்	-8.8467
▁அவன்	-8.84725
▁बस	-8.8493
▁ऐ	-8.84945
▁बड़ा	-8.85104
▁still	-8.85153
▁dis	-8.85156
கண்ட	-8.85164
▁सा	-8.85295
▁ஆமம்	-8.85298
ia	-8.8533
டய	-8.85419
▁sub	-8.85667
▁हमारी	-8.85705
ओ	-8.86044
▁g	-8.86064
▁इसे	-8.86075
▁De	-8.861
▁called	-8.86104
▁जाना	-8.86253
▁इ	-8.86263
फ़	-8.86339
▁उसी	-8.86518
टी	-8.86605
”	-8.86834
ணம்	-8.86848
▁ex	-8.869
▁while	-8.86913
रे	-8.87081
ति	-8.87085
▁done	-8.87118
▁तब	-8.87162
is	-8.87246
़	-8.87489
▁sent	-8.87557
एँ	-8.87679
▁night	-8.8769
ine	-8.87978
னர்	-8.88147
▁case	-8.88157
ated	-8.88209
▁अधिनियम	-8.88215
▁number	-8.88282
▁जी	-8.88285
கர	-8.8849
▁चीज़	-8.88635
ya	-8.88639
▁Our	-8.88653
▁ய்	-8.88725
▁राष्ट्रीय	-8.88922
ல்ல	-8.88926
▁देता	-8.88968
▁जाते	-8.8914
L	-8.89158
ா	-8.89222
▁thought	-8.89362
ie	-8.89431
▁okay	-8.89836
▁men	-8.89849
ry	-8.89917
▁10	-8.89986
▁State	-8.90025
▁इसमें	-8.90176
▁जाए	-8.90344
ஷ	-8.90412
▁without	-8.90466
மற	-8.90505
சய்த	-8.90701
▁better	-8.90717
▁Now	-8.90779
2	-8.90794
हा	-8.90947
▁ना	-8.91021
▁स्थान	-8.91035
▁among	-8.91172
ப்பட	-8.91237
▁தர	-8.91548
ंड	-8.91666
்	-8.91786
K	-8.91869
▁each	-8.91951
less	-8.92033
um	-8.92052
▁p	-8.92316
▁Him	-8.9249
▁left	-8.92542
गी	-8.92708
▁ह	-8.92722
नि	-8.92755
▁अथवा	-8.9278
ங்கள	-8.92855
▁put	-8.92887
ள்	-8.92906
▁धारा	-8.93117
▁Where	-8.93127
▁संदेश	-8.93194
▁f	-8.93223
▁च	-8.93314
ist	-8.93414
बा	-8.93602
▁அவள்	-8.93611
பச	-8.93658
▁today	-8.93674
▁जिसे	-8.93708
அந்த	-8.93793
▁keep	-8.93804
up	-8.93819
ध	-8.93913
▁ரம்ப	-8.94177
▁ल	-8.94189
▁anything	-8.9426
▁Please	-8.94415
த்	-8.94748
ad	-8.94765
di	-8.94779
▁head	-8.94867
▁आय	-8.94888
ha	-8.95016
1	-8.95333
vi	-8.95377
▁Are	-8.95515
स्ट	-8.95673
▁सूचना	-8.95695
▁बन	-8.96152
வட்ட	-8.96268
ci	-8.96519
▁शिक्षा	-8.96527
▁परवरदिगार	-8.96543
▁क्योंकि	-8.96611
▁W	-8.96774
▁different	-8.96912
▁उनसे	-8.97043
▁power	-8.97128
▁उससे	-8.97128
▁அவர்கள்	-8.97152
▁Be	-8.97308
U	-8.97327
▁Day	-8.9743
इ	-8.9779
▁विशेष	-8.97821
▁அப்ப	-8.9785
பர்	-8.97952
ful	-8.98067
ted	-8.98244
▁स्थिति	-8.98487
உன்ன	-8.98563
▁kind	-8.98655
▁मान	-8.98785
▁system	-8.98962
▁hand	-8.98977
▁जिन	-8.9906
ies	-8.99062
▁always	-8.99181
▁सकती	-8.99218
▁Just	-8.99238
co	-8.99396
पर	-8.99413
▁ला	-8.99539
▁ye	-8.99568
▁உன்ன	-8.99655
▁land	-8.99656
▁வர	-8.99689
ni	-8.99765
▁Not	-8.99975
ठ	-8.99998
▁लगा	-9.00044
R	-9.00265
▁Sa	-9.00326
▁best	-9.0047
N	-9.00523
▁Ra	-9.00673
▁उपलब्ध	-9.00703
स्त	-9.00861
வங்க	-9.00906
▁ever	-9.01264
▁La	-9.01278
▁file	-9.01361
▁Ka	-9.01405
▁करती	-9.01602
op	-9.01716
ous	-9.01739
▁उप	-9.01848
▁sure	-9.01909
he	-9.01935
▁Ba	-9.02242
ष	-9.02343
▁family	-9.02353
▁ख	-9.02368
H	-9.02395
▁old	-9.02397
▁around	-9.02543
ism	-9.02563
▁दूसरे	-9.02681
▁ந்த	-9.02709
▁bring	-9.02897
▁इसलिए	-9.0295
கல	-9.03059
▁One	-9.03067
▁father	-9.03143
ஆ	-9.03174
▁ஆ	-9.03185
▁U	-9.03301
உனக்க	-9.0334
hi	-9.03514
▁உனக்க	-9.03678
▁Thank	-9.03706
வள	-9.03889
▁सहायता	-9.03915
▁during	-9.03931
ence	-9.03953
▁mind	-9.03991
▁told	-9.04051
▁फ़ाइल	-9.0412
எங்க	-9.04658
றன்	-9.04687
▁Mr	-9.04752
▁विचार	-9.04887
दार	-9.04916
▁बड़ी	-9.04925
ver	-9.04967
எப்பட	-9.05219
பற்ற	-9.05401
உன்	-9.05514
ga	-9.05526
▁होना	-9.05539
னன்	-9.0557
மத	-9.05648
▁ஏன்	-9.05799
▁हूं	-9.05926
▁means	-9.05935
▁turn	-9.05974
▁section	-9.06056
▁विभिन्न	-9.06248
பத்த	-9.0626
W	-9.06283
तर	-9.06419
ian	-9.06477
▁con	-9.06562
▁c	-9.06577
and	-9.06639
▁मेरी	-9.06642
▁कई	-9.06889
ling	-9.07083
▁6	-9.07154
▁सेवा	-9.07231
▁उनमें	-9.07269
▁कभी	-9.07282
ப்பட்ட	-9.07286
▁होगी	-9.07286
3	-9.07418
▁development	-9.07621
▁show	-9.07827
▁शामिल	-9.07852
स्	-9.07879
?"	-9.07968
▁मा	-9.07984
▁feel	-9.08047
बी	-9.08182
▁कु	-9.08213
▁Can	-9.08251
▁talk	-9.08333
▁இப்பத	-9.08369
▁योजना	-9.08561
▁fear	-9.08589
▁wrong	-9.08681
sa	-9.08791
யன்	-9.08801
▁फ	-9.08875
▁विश्व	-9.09029
▁sir	-9.09178
▁days	-9.0918
▁बल्कि	-9.09267
▁leave	-9.09379
em	-9.09402
om	-9.09802
▁might	-9.09928
वर	-9.10017
mi	-9.10086
ru	-9.10104
▁truth	-9.1037
▁यही	-9.10372
▁ஆன	-9.1046
▁நன்ற	-9.10674
▁इससे	-9.10794
▁कहते	-9.10798
▁दौरान	-9.10955
▁करके	-9.11193
▁तैयार	-9.11294
▁Look	-9.11425
wa	-9.1143
▁आगे	-9.11606
वी	-9.11656
▁house	-9.11666
▁account	-9.11706
ge	-9.11712
V	-9.11736
▁अधीन	-9.11751
▁र	-9.11812
சர்	-9.11874
கறத	-9.11878
▁nothing	-9.11928
▁यहाँ	-9.11991
▁पता	-9.12011
▁:	-9.12142
தன	-9.12145
कि	-9.12185
▁கட	-9.12238
▁On	-9.12314
घ	-9.12442
▁गो	-9.12451
▁point	-9.12471
ர்கள்	-9.12619
▁ஜ	-9.12887
▁<	-9.12888
▁whom	-9.1305
▁अवसर	-9.13107
▁money	-9.13204
▁विषय	-9.13251
▁ask	-9.13342
▁business	-9.13383
▁अनु	-9.13443
▁अनुसार	-9.13768
▁%	-9.13777
▁सूची	-9.13803
உதவ	-9.13805
▁நீங்க	-9.13813
क़	-9.13869
▁होंगे	-9.14082
இரந்த	-9.14087
▁संबंध	-9.14197
▁जहां	-9.14221
go	-9.14259
गा	-9.14283
ish	-9.14327
▁important	-9.14351
▁won	-9.14382
▁लिये	-9.1443
யக	-9.14718
ங்	-9.14858
▁கட்ட	-9.15
ंद	-9.15031
▁अभि	-9.15081
▁sorry	-9.15264
▁उनको	-9.15274
▁ம்ப	-9.15565
▁nor	-9.15656
▁car	-9.15658
சல	-9.15678
:%	-9.15705
▁तरफ	-9.15848
▁Na	-9.15889
▁lot	-9.15974
▁ma	-9.15997
िका	-9.16033
ियां	-9.16082
▁தன்	-9.16082
nic	-9.16209
▁please	-9.16304
▁आधार	-9.1636
va	-9.16366
ப்பற்ற	-9.1644
▁20	-9.16506
ial	-9.16555
▁सामने	-9.16785
▁Dr	-9.16862
▁रह	-9.16939
வழ	-9.16954
அவர்	-9.16968
▁etc	-9.17245
வல்	-9.17288
▁इसका	-9.17477
20	-9.1769
टा	-9.17755
ating	-9.17897
▁–	-9.18016
▁New	-9.18075
ure	-9.18079
யர	-9.1823
be	-9.18241
▁घर	-9.18266
▁whole	-9.18299
பண்ண	-9.1835
▁J	-9.18432
pur	-9.18622
▁become	-9.18622
त्र	-9.18651
▁पी	-9.1871
▁सि	-9.18765
▁मै	-9.18822
▁Or	-9.1895
▁पूरा	-9.18971
▁together	-9.19059
▁cannot	-9.19124
▁everything	-9.19138
▁information	-9.19178
ये	-9.1918
▁लाभ	-9.1936
வண்ட	-9.19385
▁याद	-9.19388
▁करेगा	-9.19392
▁course	-9.19495
▁लगे	-9.19566
ak	-9.19583
और	-9.19646
da	-9.1966
▁संबंधित	-9.19738
▁जिसके	-9.19783
ँ	-9.19791
मे	-9.19894
▁देते	-9.19985
▁अलग	-9.20071
மன்	-9.20156
▁मुख्य	-9.20204
ck	-9.20212
▁दर	-9.20218
ண	-9.20222
उ	-9.20223
▁indeed	-9.20253
▁period	-9.20341
▁At	-9.20372
▁Lo	-9.20552
▁15	-9.20575
ut	-9.206
mo	-9.20637
▁संख्या	-9.20719
tic	-9.20745
▁वा	-9.2077
सं	-9.20847
மற்றம்	-9.20871
க்கள்	-9.20882
▁நங்கள்	-9.20909
▁human	-9.21018
டம்	-9.21051
▁already	-9.21056
▁w	-9.21406
▁करे	-9.2153
▁बाहर	-9.21536
ள்ள	-9.21556
डी	-9.21564
▁निर्माण	-9.21589
▁उसमें	-9.21591
▁present	-9.21616
னல்	-9.21623
गत	-9.2169
▁These	-9.21738
ee	-9.21758
லய	-9.21787
▁मार्ग	-9.21966
nd	-9.21985
ान	-9.22205
▁Say	-9.22321
▁चाहते	-9.22336
▁knowledge	-9.2234
▁12	-9.22382
▁>	-9.22423
▁son	-9.22701
▁Con	-9.22835
▁form	-9.22847
▁आपको	-9.22848
—	-9.22942
▁women	-9.23082
▁t	-9.23091
▁Man	-9.23131
நல்ல	-9.23199
▁प्रत्येक	-9.23203
▁fucking	-9.23247
▁परि	-9.23287
என	-9.23331
▁7	-9.23864
▁ங்க	-9.23962
பக	-9.24045
▁आदि	-9.24059
பட்ட	-9.24113
्र	-9.24125
கறன்	-9.24153
▁National	-9.24169
▁open	-9.24245
▁உங்களக்க	-9.24438
▁Shri	-9.24476
▁children	-9.2449
Y	-9.24547
▁नई	-9.24619
▁light	-9.24691
▁seen	-9.24698
நம்ப	-9.24911
ig	-9.25019
दी	-9.25111
▁समझ	-9.25234
▁message	-9.25316
▁OF	-9.25457
▁second	-9.2547
▁किताब	-9.25518
4	-9.25524
▁उत्तर	-9.25591
पूर्ण	-9.25634
▁play	-9.25658
▁far	-9.25683
▁body	-9.25702
ஞ்ச	-9.25846
जन	-9.25882
पा	-9.26192
▁state	-9.26201
▁बनाने	-9.26232
▁taken	-9.26261
▁company	-9.26356
▁इसी	-9.26379
▁understand	-9.264
▁clear	-9.26415
▁real	-9.26425
8	-9.26438
▁றன்	-9.26503
▁government	-9.26507
▁छोड़	-9.26543
▁स्तर	-9.26588
▁प्रक्रिया	-9.26674
த்தர	-9.26726
▁तीन	-9.26789
▁बड़े	-9.26881
▁हों	-9.27018
▁चल	-9.27135
no	-9.27179
▁अच्छा	-9.27221
நன	-9.27245
▁दूर	-9.27295
ke	-9.27416
▁जारी	-9.27433
▁Hi	-9.27545
▁start	-9.27553
▁अनेक	-9.27581
▁change	-9.27584
நம்	-9.27621
▁डाल	-9.27655
▁हाथ	-9.27672
▁heart	-9.27778
▁times	-9.27791
▁matter	-9.27945
▁Al	-9.28016
▁स्वयं	-9.28211
▁पूर्ण	-9.28265
யத	-9.28267
▁next	-9.28284
▁free	-9.28297
एस	-9.28299
வ்	-9.28454
▁भाषा	-9.28483
▁high	-9.28576
▁few	-9.28617
लि	-9.28861
ow	-9.29004
▁Minister	-9.29022
▁கர	-9.2908
ஏன்	-9.2912
▁8	-9.29292
▁आपके	-9.29389
பற	-9.29407
5	-9.29486
▁ज्ञान	-9.29522
▁उच्च	-9.29567
▁ता	-9.29577
▁Get	-9.29593
lu	-9.29603
▁mother	-9.29609
▁लो	-9.29635
▁எப்பட	-9.29769
ot	-9.29777
▁remember	-9.29824
्या	-9.29849
▁जल	-9.2987
ம்ப	-9.30123
ஃப	-9.3013
▁return	-9.30197
▁என்ற	-9.30199
▁public	-9.30259
ward	-9.30267
pa	-9.30304
▁रंग	-9.30373
▁पूरी	-9.30459
ीकरण	-9.30493
▁छ	-9.3063
உங்கள்	-9.30661
▁V	-9.30663
▁धर्म	-9.30686
मी	-9.30776
▁took	-9.30783
▁भर	-9.30805
ार	-9.30871
▁जान	-9.30997
▁Ro	-9.31051
▁small	-9.31083
▁true	-9.3118
▁'%	-9.31432
▁known	-9.31538
▁निश्चय	-9.31585
▁fuck	-9.31741
▁unto	-9.31878
pe	-9.31927
▁ऊपर	-9.31939
▁இப்ப	-9.31954
land	-9.31972
▁care	-9.31988
वार	-9.32081
▁रखा	-9.32181
▁hear	-9.32218
▁शक्ति	-9.32304
▁pro	-9.32314
▁யம்	-9.32358
▁देख	-9.32392
வர்கள்	-9.32471
▁पानी	-9.32589
ऋ	-9.32701
▁गये	-9.32707
्‍	-9.32767
ற்க	-9.32838
र्	-9.32896
ंट	-9.32937
▁बैंक	-9.33035
▁अन	-9.3312
▁St	-9.33202
▁அ	-9.33205
dy	-9.3323
▁created	-9.33243
▁ई	-9.33244
▁four	-9.33273
ाव	-9.33285
தல	-9.33292
▁बि	-9.33351
▁ப்ப	-9.33382
▁मिल	-9.33438
▁coming	-9.33456
▁list	-9.33517
त्	-9.33523
▁full	-9.33574
▁ஹய்	-9.33685
இ	-9.33732
hu	-9.33741
▁ra	-9.33926
क्स	-9.33992
▁நல்ல	-9.34029
▁हेतु	-9.34047
▁went	-9.34318
▁face	-9.34399
ac	-9.34557
ang	-9.34775
▁support	-9.34821
▁खा	-9.34885
रण	-9.34886
▁अर्थ	-9.35017
மல்	-9.35071
▁hard	-9.35174
மட்ட	-9.3525
▁माल	-9.35353
ud	-9.35401
▁दुनिया	-9.35462
tra	-9.35513
▁gave	-9.35562
▁school	-9.356
தவ	-9.35634
யர்	-9.35636
▁भवन	-9.35653
▁stop	-9.35821
▁cause	-9.35859
for	-9.36055
▁பத	-9.36149
க்கறன்	-9.36223
ை	-9.36234
▁எங்க	-9.36307
ard	-9.36438
▁तुम्हारी	-9.36461
▁महत्वपूर्ण	-9.36478
▁बनाया	-9.365
▁खुदा	-9.36582
▁चाहता	-9.36616
▁सामान्य	-9.36676
▁live	-9.36781
▁शुरू	-9.36821
▁brought	-9.369
ப்படத்த	-9.3701
▁सम	-9.37087
cu	-9.3709
ran	-9.37186
ச்	-9.37327
▁गयी	-9.3734
पन	-9.37379
▁fact	-9.37396
▁death	-9.37581
▁அங்க	-9.3764
ana	-9.37765
ba	-9.37974
▁Mar	-9.37975
வக்க	-9.38005
அ	-9.38118
▁बढ़	-9.38305
▁process	-9.38422
உங்களக்க	-9.38636
▁Did	-9.38749
ஏ	-9.38843
▁window	-9.38845
▁except	-9.38883
வரம்ப	-9.38955
அப்ப	-9.38956
ड़ा	-9.39092
▁पत्र	-9.39098
▁pre	-9.39102
▁Good	-9.39141
▁pay	-9.39153
▁yet	-9.39192
▁करेंगे	-9.39247
min	-9.39247
▁प्रौद्योगिकी	-9.3934
▁follow	-9.39343
न्	-9.39461
्म	-9.39477
ण्ड	-9.39521
▁यहां	-9.39639
▁मन	-9.39655
உள்ளத	-9.3969
▁கடவள	-9.39793
▁माध्यम	-9.39818
ise	-9.39853
▁food	-9.3987
▁राष्ट्र	-9.39965
அட	-9.40039
▁respect	-9.40095
यां	-9.40236
▁तुम्हारा	-9.40246
▁ध्यान	-9.40461
▁जिसने	-9.40514
▁(1)	-9.40629
▁மற்றம்	-9.40649
▁जमा	-9.40704
▁Right	-9.40707
▁amount	-9.4076
லம	-9.40808
▁book	-9.40961
▁ली	-9.41094
▁அவ	-9.41134
வன	-9.41169
▁இரக்க	-9.412
▁नीचे	-9.4124
▁अधिकार	-9.41375
▁ண்ட	-9.41428
इस	-9.4151
▁surely	-9.41531
▁en	-9.41678
▁बेशक	-9.417
▁உங்கள	-9.41702
▁Ar	-9.41824
▁बता	-9.41846
▁देना	-9.41847
रो	-9.41852
▁समाज	-9.4195
ंस	-9.41991
வற	-9.42021
▁देखा	-9.42023
ப்பத	-9.42104
द्र	-9.42176
▁Book	-9.42195
▁சல்ல	-9.42202
▁until	-9.42314
▁मैंने	-9.42393
சரய	-9.42533
ite	-9.42599
▁चि	-9.42625
▁big	-9.42638
tro	-9.42648
▁since	-9.42704
▁within	-9.42753
कों	-9.42766
▁level	-9.42814
▁view	-9.42871
▁making	-9.42905
தரய	-9.43046
அங்க	-9.43046
▁बिना	-9.43055
▁क्षेत्रों	-9.43058
ally	-9.43085
ंक	-9.43171
per	-9.43215
▁themselves	-9.43281
க்கண்ட	-9.43291
▁प्रमुख	-9.43362
▁ठीक	-9.434
ீர்கள்	-9.43439
▁प्रतिशत	-9.4348
ster	-9.43508
▁सके	-9.43571
▁stay	-9.43657
rs	-9.437
ap	-9.43851
▁கல	-9.43856
▁நன்ச	-9.43896
▁मो	-9.43897
எத	-9.43955
▁நம	-9.4398
▁evil	-9.4411
▁ओ	-9.44144
▁job	-9.44154
▁राज	-9.44233
▁मूल	-9.4426
▁Ha	-9.44402
▁else	-9.4447
▁dead	-9.44483
▁happened	-9.44495
▁आई	-9.44594
ख़	-9.44641
▁address	-9.44644
சந்த	-9.44661
▁क़	-9.44715
▁இ	-9.44783
▁run	-9.44785
▁side	-9.44793
▁पद	-9.44835
னம்	-9.44946
▁परिवर्तन	-9.45045
▁doesn	-9.4505
▁कै	-9.45211
▁नीति	-9.45397
▁having	-9.45425
ile	-9.45456
▁act	-9.45614
▁shit	-9.45644
▁किन्तु	-9.45663
▁special	-9.45673
▁ten	-9.4569
▁मदद	-9.45781
त्त	-9.45805
▁स्पष्ट	-9.45832
▁Co	-9.45936
▁निकल	-9.45938
▁social	-9.45949
▁bad	-9.45954
ay	-9.45961
▁interest	-9.45978
▁लेकर	-9.4601
▁Un	-9.46032
▁ज्यादा	-9.46036
▁Sir	-9.46074
இரந்தத	-9.46152
▁व्यापार	-9.46198
har	-9.46199
▁Ja	-9.46214
▁wanted	-9.46246
▁large	-9.46282
▁जिसका	-9.46321
▁income	-9.4633
மய	-9.46338
▁मूल्य	-9.46365
पुर	-9.46623
▁enough	-9.46625
▁various	-9.46638
மற்ற	-9.4664
▁Pa	-9.46645
▁विश्वास	-9.46662
▁Bo	-9.467
छ	-9.46735
▁धरती	-9.47125
▁पीछे	-9.472
▁brother	-9.47358
ेट	-9.47393
▁जबकि	-9.47452
▁வல	-9.47478
िन	-9.47542
▁दिए	-9.4759
os	-9.47619
▁ज़मीन	-9.47688
our	-9.47895
led	-9.47975
▁die	-9.48002
▁ய்ய	-9.48006
▁meet	-9.48131
பர்த்த	-9.48189
do	-9.48211
ड़े	-9.48257
▁vi	-9.48295
▁fire	-9.48313
▁law	-9.48313
ho	-9.48326
▁फ़	-9.48359
of	-9.48364
▁9	-9.48413
▁30	-9.48459
உங்கள	-9.48462
▁though	-9.48556
▁fine	-9.48577
▁control	-9.48592
▁कृषि	-9.48629
▁எனவ	-9.48644
वे	-9.48685
eth	-9.48714
▁due	-9.48826
▁सुधार	-9.4885
▁saw	-9.48851
▁आग	-9.4889
ities	-9.49097
▁अतः	-9.49127
▁गु	-9.49162
▁someone	-9.49293
में	-9.49482
▁Mo	-9.49601
ड़ी	-9.49607
▁आर्थिक	-9.49651
னத	-9.49652
tu	-9.49669
▁young	-9.49748
▁kill	-9.49831
खा	-9.4992
▁खंड	-9.49932
▁प्रभाव	-9.49934
▁others	-9.49949
▁कंपनी	-9.49959
▁होकर	-9.49965
▁யத	-9.49973
▁war	-9.5009
▁send	-9.50114
▁five	-9.50176
▁मानव	-9.50336
▁reason	-9.50373
sha	-9.50389
▁मगर	-9.50493
மன்ன	-9.5051
du	-9.50571
▁Su	-9.50581
▁saying	-9.50664
▁बी	-9.50726
களக்க	-9.50923
த்தக்க	-9.51028
▁action	-9.51107
▁अज़ाब	-9.5116
இல்லய	-9.51163
உள்ள	-9.51272
ag	-9.51277
▁ச்ச	-9.51283
▁problem	-9.51289
ीन	-9.51355
▁कुल	-9.51443
▁education	-9.51456
con	-9.51463
▁चार	-9.51493
ियाँ	-9.51551
▁towards	-9.51708
nu	-9.51728
தல்	-9.5178
▁जनता	-9.51802
▁close	-9.51815
▁value	-9.52037
சன்ன	-9.52198
▁ऋण	-9.52207
▁hold	-9.52298
▁दा	-9.523
ja	-9.52313
▁इसकी	-9.52345
▁m	-9.52381
▁date	-9.52393
नों	-9.52462
▁வண்டம்	-9.5248
िल	-9.52531
▁जानकारी	-9.52541
टे	-9.52569
கத்த	-9.52665
गे	-9.52678
ors	-9.52806
வய	-9.52861
▁பல	-9.52919
▁rest	-9.52985
▁आया	-9.53001
கவ	-9.53035
▁रु	-9.53051
▁अप	-9.53075
}	-9.53096
ंज	-9.53184
▁!	-9.53197
▁विभाग	-9.53249
▁लगभग	-9.53285
▁विधि	-9.53304
▁getting	-9.53324
▁hope	-9.53338
▁वर्ग	-9.53409
▁चाहे	-9.53448
▁sp	-9.53451
▁इनकार	-9.53481
▁फ़ोल्डर	-9.53489
▁girl	-9.53491
▁आदेश	-9.53498
▁ள	-9.53531
▁कार्यक्रम	-9.53558
▁பட	-9.53571
▁11	-9.5358
▁once	-9.53594
▁रखते	-9.53633
▁अव	-9.53652
இரக்கறத	-9.53679
▁question	-9.53737
▁later	-9.53756
களல்	-9.53799
அவன்	-9.53988
த்தற்க	-9.54017
▁language	-9.54072
▁मि	-9.54079
பய்	-9.54141
ूर	-9.54196
கம்	-9.54206
பல்	-9.54232
▁तुमसे	-9.54235
ton	-9.54251
▁खोज	-9.5429
men	-9.54393
மல்ல	-9.54477
▁सारे	-9.545
▁move	-9.54518
न्द	-9.5453
▁क्यों	-9.54579
▁भ	-9.54611
▁विज्ञान	-9.54639
▁इं	-9.54663
▁अवधि	-9.54702
▁self	-9.54745
▁யர்	-9.54839
▁word	-9.54853
▁able	-9.54853
▁स्वीकार	-9.54904
▁आने	-9.54905
என்பத	-9.54935
▁hands	-9.54978
மர	-9.55032
▁ண்டம்	-9.55078
வளய	-9.5508
tion	-9.55086
▁अभी	-9.55142
▁उद्देश्य	-9.5519
▁service	-9.55205
▁available	-9.55261
्यू	-9.55283
▁मेरा	-9.55289
po	-9.55342
▁जैसा	-9.55355
இன்னம்	-9.55355
▁நன்ப	-9.55358
ring	-9.55374
bo	-9.5544
▁probably	-9.55495
▁काफी	-9.55502
ரவ	-9.55534
सर	-9.55569
र्ड	-9.55674
▁तू	-9.55723
▁लोक	-9.5577
वाद	-9.55833
▁समूह	-9.55925
▁working	-9.55938
▁Da	-9.55958
▁वक्त	-9.5597
▁अच्छे	-9.55998
▁soon	-9.56008
ண்ட	-9.56031
▁हा	-9.56055
चा	-9.56145
▁लागू	-9.56159
▁child	-9.56297
▁जगह	-9.56328
▁asked	-9.56358
▁Is	-9.5644
▁ट	-9.56717
கர்	-9.56753
▁சர்	-9.56795
▁mo	-9.56915
▁பர்	-9.57079
அல்ல	-9.57098
▁सहयोग	-9.57119
▁Le	-9.57137
▁try	-9.57139
▁स्	-9.57197
▁http	-9.57213
ட்டம்	-9.57221
ப்பர்	-9.57222
▁रि	-9.5723
ஷ்	-9.57319
ah	-9.57336
மடய	-9.57373
▁check	-9.57411
les	-9.57415
▁himself	-9.5747
iv	-9.57499
▁मामले	-9.57509
▁sector	-9.57511
▁art	-9.57525
▁Here	-9.57726
ற்ற	-9.57761
யல	-9.57764
▁provide	-9.57838
▁हि	-9.57873
▁actually	-9.57963
ations	-9.57982
▁उद्योग	-9.57992
ki	-9.58018
▁words	-9.58045
▁comp	-9.5805
tri	-9.58122
▁read	-9.58196
▁सामाजिक	-9.58233
றத	-9.58234
▁ढ	-9.5826
▁अच्छी	-9.58382
▁eyes	-9.58402
ator	-9.58444
▁group	-9.58446
▁Those	-9.58567
ible	-9.58572
▁वहां	-9.58623
▁trust	-9.58631
▁Have	-9.58646
ஒன்ற	-9.58672
▁समान	-9.58688
▁lost	-9.58893
▁जानता	-9.58894
▁friend	-9.58935
▁रहने	-9.58972
▁Of	-9.59046
कारी	-9.59144
▁Central	-9.59163
▁बराबर	-9.5918
▁सुन	-9.59187
ंत	-9.59194
▁market	-9.59239
▁along	-9.59363
நன்ற	-9.59413
▁घ	-9.59463
▁प्रणाली	-9.59481
வக	-9.59538
▁national	-9.59587
▁office	-9.59618
://	-9.59716
ning	-9.59805
▁रखने	-9.59822
பர்க்க	-9.59902
▁story	-9.59917
▁सिवा	-9.5997
▁आवश्यक	-9.59978
gg	-9.60039
▁அவர	-9.60173
▁झ	-9.60247
▁स्थापित	-9.6046
¤3⁄4	-9.60506
▁plan	-9.60545
▁आवश्यकता	-9.60551
रि	-9.60562
▁court	-9.60574
▁शब्द	-9.60636
▁जाएगी	-9.60652
▁இன்னம்	-9.60741
▁जन	-9.60742
▁வந்த	-9.60799
▁बु	-9.60801
இரக்கம்	-9.60829
ர்கள	-9.60929
स्थ	-9.60936
▁யர	-9.60952
▁line	-9.60967
▁x	-9.61035
▁मार	-9.61067
ाय	-9.6114
▁deal	-9.61317
ाइ	-9.61367
▁guys	-9.61384
சம	-9.61434
▁After	-9.61441
▁imp	-9.6145
▁key	-9.61589
वादी	-9.61613
टर	-9.6162
▁प्रस्तुत	-9.61662
▁worship	-9.61674
▁कर्म	-9.61697
▁सीमा	-9.61698
▁area	-9.61708
▁age	-9.61763
▁बदल	-9.61781
▁क़ौम	-9.6183
शी	-9.61868
▁सू	-9.61868
▁16	-9.6191
உட	-9.6193
nt	-9.61944
▁எல்ல	-9.62009
▁रू	-9.62015
▁With	-9.62057
▁प्रयास	-9.6207
▁परियोजना	-9.62142
▁room	-9.62143
இப்பத	-9.62179
▁path	-9.62219
▁trying	-9.6226
▁दिल	-9.62284
▁कहीं	-9.6235
▁looking	-9.62371
▁wife	-9.62401
▁wait	-9.62403
वाह	-9.62468
▁क्षमता	-9.62521
ious	-9.62567
▁केंद्र	-9.62635
▁डर	-9.62654
son	-9.62699
▁punishment	-9.62705
▁दें	-9.62759
▁खेल	-9.6277
▁जानते	-9.6284
बू	-9.62878
▁heavens	-9.62943
▁meeting	-9.62993
ज़ा	-9.62999
▁local	-9.6301
கத	-9.63098
म्ब	-9.63118
िस	-9.63138
हर	-9.63214
end	-9.63227
ven	-9.63272
ip	-9.63299
▁fight	-9.63315
▁test	-9.63439
▁started	-9.63479
j	-9.63496
▁निकाल	-9.63571
ास	-9.63627
▁न्यायालय	-9.63633
▁साल	-9.63644
▁data	-9.63712
▁soul	-9.63881
▁सुरक्षा	-9.63928
▁project	-9.63981
▁रात	-9.64027
▁ழ	-9.64044
▁thou	-9.64082
▁அவள	-9.6414
▁less	-9.64184
10	-9.64221
▁la	-9.64283
▁विवरण	-9.64314
▁Vi	-9.64327
▁परिणाम	-9.64349
▁बह	-9.644
▁cl	-9.64477
000	-9.64484
bu	-9.64496
▁य	-9.64564
der	-9.64572
▁answer	-9.6463
▁save	-9.64695
▁संपर्क	-9.64701
):	-9.64734
▁राम	-9.64814
हम	-9.64822
ny	-9.64847
▁राशि	-9.64869
க்கட்ட	-9.64911
▁behind	-9.6493
▁जिससे	-9.64944
கழ	-9.64962
▁ற்ற	-9.6502
▁strong	-9.65073
மல	-9.65109
ஆனல்	-9.6514
▁Pro	-9.65224
தரயம்	-9.65332
स्क	-9.65347
The	-9.65357
सि	-9.6537
▁non	-9.65413
▁उसको	-9.65445
▁चला	-9.65463
▁wish	-9.65498
ound	-9.65508
▁folder	-9.65553
▁25	-9.6559
▁मध्य	-9.65613
tor	-9.65628
▁आए	-9.6565
▁சல	-9.65714
शा	-9.65756
▁सिर्फ	-9.65803
▁स्व	-9.65824
▁ட்	-9.65828
▁subject	-9.65858
▁alone	-9.65926
आर	-9.65971
▁bit	-9.66022
பன்	-9.66027
▁blood	-9.66032
▁type	-9.66036
▁common	-9.66068
▁अतिरिक्त	-9.66121
▁14	-9.66128
करण	-9.66161
निक	-9.66207
▁Even	-9.66254
மண	-9.66309
▁economic	-9.66378
▁लाए	-9.66404
▁morning	-9.66408
ம்பத	-9.66409
▁Ga	-9.6643
▁उठा	-9.66509
▁ஸ்	-9.66551
▁आकार	-9.66623
▁உங்க	-9.66623
▁नया	-9.66713
வற்ற	-9.66772
▁short	-9.66787
▁v	-9.66805
मन	-9.66824
▁create	-9.66829
▁boy	-9.66852
▁heard	-9.66927
எல்ல	-9.66929
▁six	-9.66947
▁ய்த	-9.66948
sion	-9.66987
ரக்கம்	-9.66991
▁either	-9.67001
மம்	-9.67069
▁Bhavan	-9.67077
ens	-9.67128
▁அம்ம	-9.67145
▁हाल	-9.67171
▁लेने	-9.67234
▁नए	-9.67249
வத்த	-9.67336
▁Z	-9.67372
mb	-9.67376
▁near	-9.67377
▁{	-9.67399
எடத்த	-9.67417
▁talking	-9.67427
க்கக	-9.67429
▁enter	-9.67441
fi	-9.67452
ize	-9.67488
▁Because	-9.67549
¥	-9.67598
ात	-9.67643
▁चुका	-9.67683
▁app	-9.6769
▁यू	-9.67723
▁किस	-9.67729
▁सभा	-9.67804
▁following	-9.67811
▁ன்ன	-9.67873
▁उत्पादन	-9.67907
▁kg	-9.67942
▁अनुसंधान	-9.67944
▁कोर्इ	-9.67983
லரந்த	-9.68066
க்கற	-9.68118
▁இர	-9.68159
சல்	-9.68168
▁मिला	-9.68222
▁देशों	-9.68223
▁अंतर्गत	-9.68257
▁चुके	-9.683
▁றத	-9.68334
▁speak	-9.68363
We	-9.68377
▁di	-9.68418
தக்க	-9.68442
▁रहते	-9.68453
▁आकाश	-9.68473
▁Ho	-9.68496
▁Delhi	-9.6851
ात्मक	-9.68512
▁above	-9.68529
▁நன்க	-9.68562
▁Some	-9.68641
அவர	-9.68643
▁அவங்க	-9.68674
▁visit	-9.68685
ka	-9.68705
कर्ता	-9.68742
நட	-9.68788
▁stand	-9.68816
▁hell	-9.68846
யன	-9.68856
▁सही	-9.68937
▁idea	-9.68962
உ	-9.6898
▁வத	-9.69049
▁कहने	-9.69095
▁सो	-9.69156
ji	-9.69178
▁ड	-9.69184
we	-9.69485
▁गुण	-9.69534
dic	-9.69618
▁Hello	-9.69648
▁capital	-9.69652
▁बल	-9.69695
ified	-9.6975
▁यातना	-9.69764
▁அவன	-9.69809
mp	-9.69871
०	-9.69944
யட	-9.69979
▁यात्रा	-9.70042
ரம்ப	-9.70046
▁knew	-9.70192
▁application	-9.70209
▁report	-9.70253
மடயத	-9.70259
ger	-9.70316
▁knows	-9.70363
அம்ம	-9.70388
▁बनाए	-9.70473
▁class	-9.70519
▁मर	-9.7055
▁ध	-9.70593
▁happy	-9.70602
ஓ	-9.70643
vo	-9.7065
▁Po	-9.70662
ub	-9.70678
▁கற	-9.7069
இரப்பத	-9.70772
▁guy	-9.70773
लो	-9.70808
▁English	-9.70919
▁nation	-9.70947
▁cost	-9.70956
▁निवेश	-9.71056
▁அட	-9.71155
▁சய்த	-9.71187
र्स	-9.71364
▁व्यवस्था	-9.71383
▁Uh	-9.71391
ng	-9.71419
▁रे	-9.71427
▁eat	-9.71432
▁ஷ	-9.71461
section	-9.71565
way	-9.7158
▁प्रदेश	-9.71622
▁city	-9.71632
▁Sam	-9.71647
ten	-9.71664
நீங்க	-9.71717
▁Show	-9.7173
▁सर	-9.71767
▁woman	-9.71805
▁k	-9.71811
▁तुमने	-9.71826
र्ज	-9.71877
▁वालों	-9.71967
▁command	-9.71993
▁ஆம	-9.72025
ர்ந்த	-9.72062
மனத	-9.72066
▁पक्ष	-9.72066
அவன	-9.72085
▁taking	-9.7209
▁possible	-9.72108
पत्र	-9.72155
▁Rs	-9.72159
▁whatever	-9.72171
▁स्थित	-9.72184
mon	-9.72197
▁अस	-9.72264
जे	-9.723
▁एन	-9.72312
▁Mi	-9.72312
நரம்	-9.72342
▁Fa	-9.72344
▁प्रा	-9.72346
che	-9.72356
▁tax	-9.72368
▁Di	-9.72392
ரன்	-9.72408
▁महा	-9.72701
க்கட	-9.72826
▁वस्तु	-9.72836
ही	-9.72847
▁பத்த	-9.72856
▁certain	-9.72892
▁सदस्य	-9.7292
▁एस	-9.72928
▁text	-9.72981
▁based	-9.7325
▁नही	-9.73282
▁सत्य	-9.73335
▁बेहतर	-9.73388
▁See	-9.73461
ட்டன்	-9.73525
▁provided	-9.73534
▁रोग	-9.73552
▁बाल	-9.73644
(	-9.73717
▁signs	-9.73731
बे	-9.7375
red	-9.73759
▁कल	-9.73919
▁countries	-9.73949
▁दृष्टि	-9.73975
▁n	-9.74052
▁जिन्हें	-9.74083
▁past	-9.74098
12	-9.7411
அழ	-9.74207
அழத்த	-9.74249
▁friends	-9.74292
▁least	-9.74356
▁gone	-9.74371
▁religion	-9.74393
फा	-9.74428
எட	-9.74508
धि	-9.7453
▁विशिष्ट	-9.74627
▁परिवार	-9.74642
od	-9.74648
▁मनुष्य	-9.74685
▁वर्तमान	-9.74685
▁सह	-9.74705
▁Indeed	-9.74734
▁தல	-9.74767
▁मूसा	-9.74792
▁anyone	-9.74797
▁cut	-9.74802
ative	-9.74815
தக	-9.74847
▁निर्णय	-9.74882
ING	-9.74914
▁परन्तु	-9.74948
அவள்	-9.75074
ber	-9.75091
▁position	-9.75114
▁equal	-9.75115
▁राह	-9.75192
J	-9.75208
வரம்	-9.75256
▁பச	-9.7527
▁इतिहास	-9.75291
▁वर्षों	-9.75384
ப்பன்	-9.754
நற	-9.75402
¤	-9.75409
▁comes	-9.75412
▁Cha	-9.75433
▁ஒரப	-9.75434
▁पहुँच	-9.75467
▁services	-9.75527
▁पु	-9.75532
▁faith	-9.75533
ம்இல்ல	-9.75581
▁fall	-9.75604
த்தல	-9.75667
▁Rashtrapati	-9.75683
▁ready	-9.75722
▁17	-9.75775
▁ஏய்	-9.75874
▁Mu	-9.75879
அவள	-9.7606
▁ba	-9.76065
one	-9.76073
¤°	-9.761
▁छवि	-9.76111
ரம்	-9.76149
दे	-9.76229
▁Like	-9.76268
▁wanna	-9.76276
▁party	-9.76332
அவ	-9.7637
जो	-9.76377
▁#44;	-9.76394
▁थीं	-9.764
act	-9.76441
▁कला	-9.76459
இப்ப	-9.76492
ach	-9.76494
▁गा	-9.76525
▁ரயம்	-9.76568
▁संघ	-9.76743
▁कौन	-9.76779
▁अधिकारी	-9.76827
ai	-9.76884
▁break	-9.76928
▁million	-9.76934
tan	-9.76944
▁yourself	-9.77032
all	-9.77361
▁पहचान	-9.77375
डा	-9.77379
▁bo	-9.77404
▁வட	-9.77464
▁whether	-9.7753
▁post	-9.77597
line	-9.77606
र्क	-9.77662
▁दिल्ली	-9.77711
्व	-9.77714
▁वहाँ	-9.7775
▁areas	-9.77753
▁society	-9.77771
▁शरीर	-9.77832
▁months	-9.77839
▁example	-9.77851
▁संस्था	-9.77875
▁yeah	-9.77908
▁युद्ध	-9.77917
▁13	-9.78038
▁individual	-9.78093
ship	-9.78107
▁building	-9.78117
▁ரம்	-9.78171
▁सन्	-9.7832
▁पेश	-9.78326
ன்ற	-9.78328
wi	-9.78337
அப்பட	-9.78354
மட்டன்	-9.78367
▁रोक	-9.78413
▁sh	-9.78432
ழ	-9.78452
▁bar	-9.78486
देश	-9.78526
▁கண்ட	-9.78594
▁rate	-9.78688
ore	-9.78736
▁लक्ष्य	-9.7874
▁term	-9.78757
▁दूसरी	-9.78781
▁स्वास्थ्य	-9.78801
▁bear	-9.78805
tur	-9.78813
tal	-9.78818
हार	-9.78896
▁further	-9.78964
▁रख	-9.7898
▁वास्तव	-9.78992
▁हमारा	-9.79025
▁बंद	-9.79091
எந்த	-9.79148
▁0	-9.79174
▁Sorry	-9.79333
▁Ne	-9.7936
சன்	-9.79421
ii	-9.79427
▁future	-9.79453
ீங்க	-9.79461
▁needs	-9.7948
▁main	-9.79507
▁o	-9.79519
ப்பற	-9.79521
நல	-9.7955
▁सोच	-9.79581
▁प्रधानमंत्री	-9.79657
▁तुमको	-9.79681
அவர்கள்	-9.79725
आई	-9.79761
▁உ	-9.79768
ஆம்	-9.79813
ஸ்ட	-9.79814
மர்	-9.79818
▁va	-9.79824
gu	-9.79828
▁sense	-9.79835
மழ	-9.79837
க்கர	-9.79858
▁whose	-9.79861
king	-9.79897
▁100	-9.79897
▁''	-9.79906
நடந்த	-9.79963
▁became	-9.79965
▁By	-9.79985
pos	-9.80018
▁occasion	-9.80047
▁policy	-9.80191
▁मह	-9.80259
▁डी	-9.80327
இரண்ட	-9.80392
▁hearts	-9.80414
▁देगा	-9.80463
▁उपधारा	-9.80479
van	-9.80493
▁ha	-9.80555
▁अंत	-9.80558
▁डि	-9.80594
kar	-9.8061
11	-9.80662
मो	-9.80693
▁members	-9.80705
▁लाख	-9.80758
30	-9.8084
தங்க	-9.80858
▁विश्वविद्यालय	-9.80881
▁cent	-9.80918
धा	-9.80936
▁கள	-9.80965
ப்பம்	-9.80966
amp	-9.81109
▁works	-9.81141
रु	-9.81151
▁देखते	-9.81171
▁धन	-9.81233
ze	-9.81265
கட்க	-9.81284
▁ब्र	-9.81397
▁रो	-9.81405
ions	-9.81409
▁நம்ம	-9.81516
ical	-9.81573
▁हुक्म	-9.81579
▁तौर	-9.81608
म्	-9.817
▁मंत्रालय	-9.81726
▁living	-9.81728
▁50	-9.81729
कु	-9.81771
ரந்த	-9.81807
▁प्रश्न	-9.81851
ca	-9.81854
fe	-9.8192
▁met	-9.81947
▁research	-9.81998
▁San	-9.82017
▁कैसे	-9.82073
▁game	-9.82091
▁बच्चों	-9.82229
▁force	-9.82255
க்ஸ்	-9.82281
ph	-9.82315
▁जिनके	-9.82322
▁h	-9.82325
▁Could	-9.82397
கள்ள	-9.82399
ping	-9.82411
கறம்	-9.82451
ab	-9.82564
▁निर्धारित	-9.82613
tch	-9.82643
▁आसमान	-9.82657
▁க்கம்	-9.82664
िश	-9.82677
▁contact	-9.82734
qui	-9.82757
▁दिखा	-9.82857
गो	-9.82945
▁யல்	-9.82948
▁க்	-9.82975
▁Gu	-9.83011
சத்த	-9.83015
▁काल	-9.83059
ढ़	-9.83072
▁வற	-9.83111
▁अनुभव	-9.8314
▁THE	-9.83143
ight	-9.83171
▁हमेशा	-9.832
கண	-9.83229
बर	-9.83277
▁held	-9.8329
▁daughter	-9.83306
▁நன	-9.8334
▁परंतु	-9.8337
▁political	-9.83476
▁Open	-9.83477
▁nature	-9.83481
▁makes	-9.83563
கய	-9.83571
▁जन्म	-9.83572
▁Ta	-9.83629
▁outside	-9.83683
▁result	-9.83735
▁health	-9.83762
▁स्थानीय	-9.83882
▁Y	-9.83904
▁विकसित	-9.83923
▁प्रेम	-9.83937
ug	-9.83941
▁அப்பட	-9.83973
यी	-9.83985
வச	-9.83989
ized	-9.84052
▁door	-9.84054
व्य	-9.84059
च्छ	-9.84071
▁भूमि	-9.84087
▁1.	-9.84138
port	-9.84162
जि	-9.84168
▁संस्थान	-9.8418
ஆக	-9.84182
சக	-9.84185
▁रा	-9.84258
bi	-9.84294
cal	-9.8441
நல்லத	-9.84453
▁जिन्होंने	-9.8448
ff	-9.84495
त्व	-9.84504
ப்பக	-9.84617
▁ங்கள்	-9.84643
▁मी	-9.84669
▁पढ़	-9.84717
क्	-9.84737
▁பற	-9.84747
▁Most	-9.84793
▁சய்ய	-9.84845
▁including	-9.84869
தம்	-9.84919
▁listen	-9.85032
शि	-9.85121
▁British	-9.85127
▁वास्ते	-9.85149
ண்ட்	-9.85218
▁Hindi	-9.85257
ற்ப	-9.85274
▁clause	-9.853
▁ago	-9.85316
▁everyone	-9.85321
ृ	-9.85329
वीं	-9.8533
▁तहत	-9.85396
ign	-9.85406
▁Jo	-9.85407
▁sign	-9.85567
ect	-9.85619
▁history	-9.85626
பய	-9.85685
▁translation	-9.85758
▁village	-9.85777
என்றல்	-9.85813
அனப்ப	-9.85825
▁inter	-9.85826
▁bank	-9.85848
▁ள்	-9.8585
▁२	-9.85872
தவற	-9.85914
▁States	-9.85925
ability	-9.86078
▁total	-9.86087
▁वै	-9.86109
▁बदला	-9.86124
▁पड़े	-9.86131
▁Singh	-9.86156
▁effect	-9.86174
▁Maybe	-9.86272
▁air	-9.86427
▁मांग	-9.86453
▁music	-9.86515
▁says	-9.86551
nce	-9.86562
You	-9.86589
▁भेजा	-9.86647
▁चित्र	-9.86672
க்கவ	-9.86676
▁received	-9.8668
▁(2)	-9.86702
க்கணம்	-9.86748
▁therefore	-9.86762
▁@	-9.86814
▁हे	-9.86863
▁महान	-9.86881
▁Wait	-9.86883
▁अंग	-9.86892
que	-9.86893
▁reach	-9.86983
▁access	-9.87004
▁क्रिया	-9.87109
பன	-9.87115
▁ன்ற	-9.87122
▁उदाहरण	-9.87174
▁High	-9.87176
▁touch	-9.87235
रू	-9.87246
▁reward	-9.87253
au	-9.87259
▁अंतिम	-9.87296
cul	-9.8732
▁वापस	-9.8736
मु	-9.87398
▁Fuck	-9.87407
▁Court	-9.87447
यर	-9.87463
தட	-9.87481
pi	-9.87507
▁लग	-9.87508
डे	-9.87549
gi	-9.87555
▁front	-9.8758
▁House	-9.87584
▁security	-9.87623
chi	-9.8764
▁दिशा	-9.8767
gra	-9.87679
पो	-9.87687
▁Bank	-9.87796
▁Name	-9.8786
षण	-9.87864
▁जरूरत	-9.8787
▁lead	-9.87888
▁विदेशी	-9.88085
எல்லம்	-9.881
िर	-9.88135
बल	-9.88142
राज	-9.88167
மக்க	-9.88174
▁till	-9.88252
▁share	-9.88316
▁believers	-9.8837
▁field	-9.8837
¥	-9.88402
▁deeds	-9.88443
▁आम	-9.88452
▁எத	-9.88466
ेगा	-9.88471
▁using	-9.88509
▁समाप्त	-9.88526
▁phone	-9.88566
▁uh	-9.88573
▁समिति	-9.8867
बंध	-9.88702
▁पाठ	-9.88719
▁अमेरिका	-9.88805
யம	-9.88845
▁जि	-9.88897
▁त्रुटि	-9.88904
▁अधि	-9.88917
शन	-9.88963
▁भूमिका	-9.89013
ुर	-9.89115
झ	-9.8912
सु	-9.89147
▁source	-9.89165
▁मंदिर	-9.89174
cent	-9.89185
▁मौजूद	-9.89192
▁आर	-9.89299
▁लगता	-9.89301
▁half	-9.89372
▁error	-9.8938
▁मत	-9.89418
▁बै	-9.89479
nk	-9.89484
▁छोटे	-9.89484
▁हक़	-9.89495
▁बहु	-9.89531
வட்டத	-9.89558
नो	-9.89566
▁growth	-9.89602
▁isn	-9.89633
!"	-9.89653
दान	-9.89677
ER	-9.89783
▁promise	-9.89788
▁மன்ன	-9.89791
▁पै	-9.89823
ide	-9.89824
▁जाएँ	-9.89853
तो	-9.8988
▁सक्रिय	-9.89997
ீர்கள	-9.90027
பரய	-9.90036
▁दु	-9.90048
▁नियम	-9.90096
AR	-9.90138
▁i	-9.90144
ble	-9.9017
▁town	-9.90197
▁experience	-9.90228
ाना	-9.90292
▁accept	-9.90299
▁फल	-9.90368
ner	-9.90427
▁price	-9.90437
▁function	-9.90468
den	-9.90468
▁Va	-9.90472
ட்ர	-9.90477
▁Select	-9.90495
uck	-9.906
ery	-9.90607
ष्ट	-9.90621
▁प्रवेश	-9.90649
▁இன்ற	-9.9068
▁गिर	-9.90682
▁जहाँ	-9.9069
▁inside	-9.90691
16	-9.9071
ोर	-9.90731
ஏத	-9.90783
ग़	-9.90823
वान	-9.90878
▁24	-9.90903
ाम	-9.90944
काल	-9.90947
्‍य	-9.90954
▁itself	-9.9099
▁im	-9.91005
▁रहता	-9.91031
▁ground	-9.91032
கல்	-9.91063
▁निस्संदेह	-9.91074
▁बढ़ा	-9.91088
रूप	-9.91122
ல்லம்	-9.91136
▁protect	-9.91159
க்கத	-9.9117
▁peace	-9.91191
நர	-9.9129
▁Pra	-9.91368
▁प्रमाण	-9.9139
▁several	-9.91396
▁single	-9.91402
▁निश्चित	-9.91419
ther	-9.91453
சவ	-9.91463
▁अनुमति	-9.91466
मि	-9.91491
ाया	-9.91492
▁आधारित	-9.91497
▁certainly	-9.91531
▁Take	-9.91556
▁विस्तार	-9.91557
▁lo	-9.91572
▁किये	-9.91573
▁एक्स	-9.91575
▁General	-9.91593
धार	-9.91597
▁पि	-9.91608
▁पाया	-9.91647
गर	-9.91657
▁En	-9.91672
cc	-9.91772
▁केन्द्र	-9.91822
தல்ல	-9.91893
उस	-9.91959
▁sea	-9.91973
▁नियंत्रण	-9.91996
▁po	-9.92015
ाँ	-9.9203
कृत	-9.92075
மீண்டம்	-9.9211
▁Stop	-9.92134
▁विकल्प	-9.92145
▁Ex	-9.92148
▁जाएँगे	-9.92171
पे	-9.92173
▁आरंभ	-9.92177
▁X	-9.92194
▁वो	-9.92196
▁month	-9.92196
▁pass	-9.92216
gar	-9.92248
कल	-9.9227
▁बाजार	-9.92298
▁seven	-9.92305
▁मित्र	-9.92337
ே	-9.9234
▁Th	-9.92345
ding	-9.92399
▁समस्या	-9.92402
श्र	-9.92437
ory	-9.92478
AN	-9.92496
mer	-9.9255
▁डाक	-9.9258
▁Te	-9.92612
▁भाई	-9.92669
▁Prime	-9.92685
ளர்	-9.92693
shi	-9.92713
▁संयुक्त	-9.92756
day	-9.92777
rate	-9.92809
தய	-9.92908
▁moment	-9.92912
▁பட்ட	-9.92975
▁संबंधी	-9.92976
▁Ram	-9.92999
▁सहायक	-9.93044
्रा	-9.93114
▁decision	-9.93161
lin	-9.93189
▁जांच	-9.93191
गु	-9.93208
र्म	-9.93302
கவல	-9.93311
▁भीतर	-9.93335
rn	-9.93344
▁निर्धारण	-9.93364
ron	-9.9348
▁entire	-9.93542
▁required	-9.93559
▁wasn	-9.93559
▁वित्तीय	-9.93579
▁figure	-9.93584
▁mu	-9.93594
▁जिसकी	-9.93597
▁पार	-9.93619
ES	-9.93651
▁மற	-9.93723
▁माना	-9.93799
tr	-9.93801
▁movement	-9.93829
रों	-9.93889
ear	-9.94077
▁purpose	-9.94173
▁भू	-9.94183
ft	-9.94186
▁plant	-9.9419
▁secret	-9.94293
▁continue	-9.94339
▁*	-9.94379
rit	-9.94386
▁Messenger	-9.94513
▁region	-9.94544
▁sound	-9.94568
मत	-9.9458
▁r	-9.9466
மட்டம்	-9.94689
▁Pre	-9.94705
த்தன	-9.94738
▁forward	-9.94749
▁स्थापना	-9.9476
▁இரண்ட	-9.94782
▁प्रथम	-9.94791
▁जाओ	-9.94818
▁அதவத	-9.94868
ging	-9.94911
அம	-9.94944
▁industry	-9.95006
tain	-9.95057
உணவ	-9.95079
▁foreign	-9.95102
▁सिंह	-9.95139
சய	-9.95162
ेशन	-9.95214
--	-9.95223
चार	-9.95239
6	-9.95264
▁paid	-9.9531
▁पे	-9.95349
▁Hindu	-9.95403
▁विंडो	-9.9542
▁निर्दिष्ट	-9.95436
ाल	-9.95475
▁Dad	-9.95488
▁trade	-9.95512
▁प्रगति	-9.95532
▁drink	-9.95612
▁टे	-9.95643
ped	-9.95694
▁computer	-9.957
▁letter	-9.95712
▁selected	-9.95714
AL	-9.9572
▁sister	-9.95799
▁police	-9.95893
▁doubt	-9.95894
optional	-9.95961
एम	-9.96019
▁Ca	-9.96076
▁turned	-9.96107
▁Tell	-9.96134
▁Will	-9.96153
▁fast	-9.96206
▁कानून	-9.96218
▁वृद्धि	-9.96268
டன	-9.96268
▁संविधान	-9.96303
வட்டன்	-9.96325
▁Har	-9.96332
▁पड़	-9.96401
▁ca	-9.96436
▁team	-9.96461
▁अल	-9.96462
▁कमी	-9.96484
▁लौट	-9.96491
ंच	-9.96534
द्	-9.96607
▁PRESIDENT	-9.96618
▁Ni	-9.96623
fa	-9.96634
ரய	-9.96663
क्त	-9.9668
ler	-9.96727
ेंगे	-9.96809
▁space	-9.96859
▁सका	-9.96861
▁अध्ययन	-9.96862
படத்த	-9.9689
▁task	-9.9691
नाज़िल	-9.96934
ेड	-9.96955
▁walk	-9.96971
▁disease	-9.97088
▁प्रबंधन	-9.97212
க்கறத	-9.97218
▁भेज	-9.97241
▁எ	-9.9725
▁poor	-9.97251
▁lives	-9.97274
▁=	-9.97301
▁killed	-9.97341
▁Ti	-9.974
▁டக்க	-9.97457
▁top	-9.97476
▁மற்ற	-9.9748
▁write	-9.97511
▁baby	-9.97524
வஷயம்	-9.97571
▁लेते	-9.97613
▁ஹல	-9.97613
▁technology	-9.97617
▁40	-9.97719
▁property	-9.97725
▁றய	-9.97764
तः	-9.97794
▁watch	-9.97852
▁seek	-9.97905
▁पहुंच	-9.97988
हि	-9.98161
▁image	-9.98168
▁sleep	-9.98182
RE	-9.98194
நண்ப	-9.982
▁उठ	-9.98223
▁मृत्यु	-9.98257
▁எந்த	-9.98271
ose	-9.98324
▁पहुँचा	-9.9835
दर	-9.98437
▁निर्	-9.9845
▁पिछले	-9.98459
▁अलावा	-9.98528
▁एम	-9.98535
▁அதனல்	-9.98538
தண்ட	-9.98563
▁டம்	-9.98574
▁activities	-9.98602
▁almost	-9.98602
▁previous	-9.98652
▁fa	-9.98697
▁link	-9.98698
तम	-9.9873
▁super	-9.98743
▁प्रकाश	-9.98753
ass	-9.98818
▁राजा	-9.9887
▁Committee	-9.989
▁कृपया	-9.989
बद्ध	-9.989
out	-9.98913
ever	-9.98919
OR	-9.98963
▁li	-9.98991
▁2.	-9.98992
▁May	-9.99003
▁news	-9.9908
▁पहली	-9.99089
pp	-9.99099
▁success	-9.99158
▁Us	-9.99166
பண	-9.99168
▁People	-9.99198
▁कं	-9.99221
▁சரய	-9.99253
▁Ch	-9.99305
nn	-9.99312
▁current	-9.99343
கறீர்கள்	-9.99344
▁financial	-9.99347
▁authority	-9.99392
ப்பர	-9.99437
▁mode	-9.99453
▁அல்லத	-9.99536
▁रखता	-9.99559
▁सहित	-9.99566
▁लें	-9.99568
▁மத	-9.99572
பக்க	-9.9968
▁sun	-9.9972
நம்ம	-9.9974
உங்க	-9.99746
▁பய்	-9.99749
tle	-9.99776
चे	-9.99792
▁Du	-9.99794
▁खाता	-9.99794
▁credit	-9.99873
press	-9.99891
அற	-9.99892
gen	-9.99963
ual	-9.99987
ஸ்டர்	-9.99987
▁safe	-10.0003
▁दृश्य	-10.0007
▁மட	-10.001
ும்	-10.001
▁सर्वर	-10.0012
அல்லத	-10.0013
▁forth	-10.0014
▁Ministry	-10.0015
▁demand	-10.0015
▁nice	-10.0019
ஞ	-10.0021
tter	-10.0022
चर	-10.0024
▁myself	-10.0024
க்கம	-10.0027
med	-10.0027
▁University	-10.003
si	-10.003
▁major	-10.0032
▁necessary	-10.0032
▁உள்ள	-10.0033
यन	-10.0034
lic	-10.0034
▁उत्पन्न	-10.0038
याँ	-10.0039
▁१	-10.0048
▁अंतर	-10.0048
▁अति	-10.0051
▁guide	-10.0054
▁production	-10.0059
▁அப்படய	-10.006
▁चौ	-10.0065
கறர்	-10.0082
५	-10.0082
▁Li	-10.0084
▁दिनों	-10.0088
ஆமம்	-10.0089
und	-10.0089
▁written	-10.0093
▁Am	-10.0094
▁साहित्य	-10.0095
IN	-10.0101
▁ர்த்த	-10.0103
▁हिस्सा	-10.0111
7	-10.0115
qu	-10.0116
ப்பத்த	-10.0117
वास	-10.012
க்கள்ள	-10.012
▁personal	-10.0127
न्न	-10.0131
▁खोल	-10.0133
▁king	-10.0134
▁dad	-10.0141
இரவ	-10.0141
▁search	-10.0144
ீ	-10.0145
▁maybe	-10.0145
ரக	-10.0145
இட	-10.0146
पु	-10.0148
▁पुनः	-10.0149
▁प्रशिक्षण	-10.0151
ani	-10.0152
▁खुद	-10.0153
ल्	-10.0154
▁Department	-10.0157
▁beautiful	-10.0159
▁remain	-10.016
ग्र	-10.0169
▁டயத	-10.0169
▁ரய	-10.0173
▁सुनिश्चित	-10.0174
▁समर्थन	-10.0185
▁फाइल	-10.0188
▁attack	-10.019
भी	-10.0191
னக்க	-10.0193
▁पृष्ठ	-10.0194
▁झूठ	-10.0197
வீட	-10.0199
கறய்	-10.02
su	-10.0201
ung	-10.0202
▁rep	-10.0208
ஆன	-10.0212
ization	-10.0212
▁करोड़	-10.0218
▁Fi	-10.022
▁मंत्री	-10.0228
side	-10.0228
▁पुनर्	-10.0231
▁Sp	-10.0236
▁जे	-10.0242
▁दक्षिण	-10.0242
▁ऊर्जा	-10.0249
war	-10.0249
▁पूंजी	-10.0251
X	-10.0252
हे	-10.0254
நறத்த	-10.0256
oc	-10.0257
▁material	-10.0267
बार	-10.0268
▁role	-10.0269
▁भुगतान	-10.0269
ஒண்ண	-10.027
ल्ल	-10.027
▁pa	-10.0272
रत	-10.0276
ियन	-10.0283
pr	-10.0285
▁जोड़	-10.0289
▁Se	-10.0294
▁mail	-10.0295
ணம	-10.0297
▁quality	-10.0303
▁thousand	-10.0306
ன்ஸ்	-10.0306
▁students	-10.0308
▁आदमी	-10.0313
शील	-10.0316
▁डे	-10.0317
ஃப்	-10.0318
let	-10.032
▁feeling	-10.0321
▁happen	-10.0328
▁learn	-10.033
िम	-10.0332
▁ऑ	-10.0336
द्ध	-10.0337
ice	-10.0343
▁प्रारंभ	-10.0347
१	-10.0347
रिया	-10.0348
▁भिन्न	-10.0369
६	-10.0376
▁कार्यालय	-10.038
,"	-10.0382
▁मात्रा	-10.0383
▁ho	-10.0386
▁tree	-10.0386
தர்	-10.0387
ration	-10.0388
▁न्याय	-10.0388
▁स्रोत	-10.0399
▁pi	-10.0403
வரவ	-10.0406
▁रिपोर्ट	-10.0407
▁clean	-10.0412
கடக்க	-10.0415
▁निधि	-10.0418
िता	-10.0419
▁सै	-10.0419
लू	-10.042
▁easy	-10.0425
▁योग्य	-10.0432
▁scheme	-10.0433
▁File	-10.0434
एक	-10.0435
வள்	-10.0435
▁वास्तविक	-10.044
ुक	-10.0441
▁भावना	-10.0444
▁late	-10.0447
▁thinking	-10.0447
▁आधुनिक	-10.0449
र्ट	-10.0449
ick	-10.045
भाव	-10.045
▁इस्लाम	-10.0451
▁ग्र	-10.0452
ue	-10.0454
िए	-10.0455
IT	-10.0463
▁claim	-10.0469
▁natural	-10.047
▁चुनें	-10.0471
▁सत्ता	-10.0474
▁மலம்	-10.0474
▁’	-10.0478
▁page	-10.0478
▁week	-10.0481
▁mercy	-10.0483
▁+	-10.0484
ification	-10.0485
so	-10.0487
▁higher	-10.0488
▁witness	-10.0491
▁(19	-10.0492
▁रहो	-10.05
IC	-10.0505
▁शि	-10.0506
▁பரய	-10.0507
▁community	-10.0509
▁सेना	-10.0511
ari	-10.0511
▁पकड़	-10.0511
▁समुदाय	-10.0512
▁situation	-10.0515
▁जीव	-10.0515
▁மல	-10.0519
▁वेबसाइट	-10.0528
▁From	-10.0528
▁सौ	-10.053
चल	-10.0531
அண	-10.0536
▁लिख	-10.0536
▁सरकारी	-10.0537
▁மக	-10.0554
▁மன	-10.056
▁ரயத	-10.0566
▁इस्तेमाल	-10.057
▁sin	-10.0571
▁hit	-10.0574
सू	-10.0576
க்கடத	-10.058
▁object	-10.0587
அவர்கள	-10.059
▁Mom	-10.0599
▁सुविधा	-10.06
▁le	-10.0607
▁बच्चे	-10.061
▁established	-10.061
▁problems	-10.0612
ஐ	-10.0612
▁நன்ஒர	-10.0613
மீத	-10.0613
லக்க	-10.062
▁Pradesh	-10.0626
ल्ड	-10.0627
▁patient	-10.0629
ऊण्श्छ्ष्	-10.0632
▁उत्	-10.0632
oo	-10.0633
rr	-10.0636
▁kept	-10.0637
वत	-10.0639
भा	-10.064
▁website	-10.0642
▁difficult	-10.0644
▁ஃப	-10.0647
ps	-10.0648
row	-10.0649
tive	-10.0653
▁America	-10.0659
yan	-10.0659
ple	-10.0667
ग्	-10.0669
▁increase	-10.0669
▁Car	-10.0679
▁நன்உன்ன	-10.0681
ised	-10.0683
▁लिखा	-10.0684
▁travel	-10.0685
▁संगठन	-10.0686
eg	-10.0689
cing	-10.0696
▁books	-10.0698
४	-10.0699
▁राज्यों	-10.0704
▁उनपर	-10.0705
▁believed	-10.0708
▁खाते	-10.0708
▁जैसी	-10.0713
bel	-10.0714
▁rain	-10.0714
▁related	-10.0721
▁disc	-10.0725
▁लाल	-10.0728
▁पो	-10.0729
▁writing	-10.0733
What	-10.0733
ूल	-10.0739
யச	-10.0739
▁wide	-10.074
त्य	-10.074
லன்	-10.0745
▁लड़	-10.0754
▁மகவம்	-10.0754
▁complete	-10.0754
use	-10.0755
▁user	-10.0761
▁सार्वजनिक	-10.0766
▁स्कूल	-10.0766
▁लेखा	-10.0767
ரண	-10.077
ress	-10.0774
▁निर्यात	-10.0774
▁stage	-10.0775
ची	-10.0776
वन	-10.0776
▁प्रस्ताव	-10.0776
q	-10.0777
ம்ம	-10.0777
▁goes	-10.0781
नाथ	-10.0786
▁ज़रूर	-10.0788
ஸ்க	-10.0795
▁tried	-10.08
▁produce	-10.0801
வதற்க	-10.0807
▁Congress	-10.0809
▁rule	-10.0813
▁प्रकृति	-10.0813
▁रचना	-10.0814
▁हटा	-10.0818
han	-10.0824
▁Ah	-10.0825
▁files	-10.0827
▁गांधी	-10.0832
ction	-10.0832
08	-10.0836
mar	-10.0839
▁பண்ண	-10.0839
ara	-10.0839
▁greater	-10.0842
▁சல்	-10.0844
ंध	-10.0844
▁size	-10.0852
▁தன	-10.0853
▁thank	-10.0856
ाने	-10.0866
▁district	-10.0867
▁cur	-10.0868
▁शहर	-10.087
ार्थ	-10.087
▁दल	-10.0877
எ	-10.0878
▁அவர்கள	-10.0882
▁भविष्य	-10.0886
▁early	-10.0887
▁கள்	-10.0889
मय	-10.0893
டவ	-10.0897
उन	-10.0899
वह	-10.0899
▁रुप	-10.0901
▁add	-10.0908
▁நன்அத	-10.0911
▁அதவ	-10.0913
▁lie	-10.0915
▁video	-10.0919
▁Mon	-10.0922
ec	-10.0922
यो	-10.0925
uc	-10.0929
vis	-10.0929
▁Development	-10.0936
▁hurt	-10.0938
▁therein	-10.0942
ep	-10.0949
▁firm	-10.095
அன	-10.0953
▁सिर	-10.0956
▁Fire	-10.0957
▁मामलों	-10.0957
ढ	-10.0962
▁passed	-10.0963
▁none	-10.0967
▁l	-10.0977
▁practice	-10.0985
ेस	-10.0985
▁நன்ம	-10.0987
▁जु	-10.0988
▁progress	-10.0992
चक	-10.0992
▁ship	-10.1001
▁வட்ட	-10.1002
▁पूरे	-10.1014
राम	-10.1017
▁color	-10.1021
bit	-10.1027
▁सक्षम	-10.1027
▁red	-10.1027
▁provisions	-10.1031
ik	-10.1033
▁क्र	-10.1034
றங்க	-10.1034
▁cha	-10.1035
▁कोशिश	-10.1038
▁host	-10.1041
▁अत्यन्त	-10.1049
▁loss	-10.1049
▁दिखाएँ	-10.1054
▁ரக்க	-10.1054
ology	-10.1054
கற்ற	-10.1063
▁यक़ीनन	-10.1065
▁energy	-10.1071
▁टी	-10.1073
br	-10.1073
▁शासन	-10.1077
pro	-10.1078
டர	-10.1078
▁सम्	-10.1085
tha	-10.1088
▁evidence	-10.1088
▁நல்லத	-10.1089
सन	-10.109
▁निकट	-10.1091
▁road	-10.1092
இடம்	-10.1092
ev	-10.1093
ments	-10.1094
▁நன்வ	-10.1098
▁eight	-10.1099
ition	-10.1103
RB	-10.1107
–	-10.1107
▁record	-10.1112
▁operation	-10.1114
ஏதவத	-10.1117
▁बुरा	-10.1117
क्या	-10.1121
▁culture	-10.1125
ram	-10.1127
▁guidance	-10.1127
▁deep	-10.1129
▁நர	-10.1132
▁quite	-10.1141
பண்	-10.1145
▁rich	-10.1145
▁हैः	-10.1146
சய்	-10.1147
ants	-10.115
▁low	-10.1153
ey	-10.1157
▁व्य	-10.1157
▁ग्रामीण	-10.1158
av	-10.1159
ष्ठ	-10.116
▁थ	-10.1168
ama	-10.1169
ium	-10.117
▁husband	-10.1172
▁ஒரக	-10.1177
▁gr	-10.1184
▁pain	-10.1188
▁सदस्यों	-10.1188
தண	-10.119
▁pen	-10.1193
▁बातें	-10.1193
▁gain	-10.1195
गण	-10.1197
▁ऑफ	-10.1197
▁पूछ	-10.1199
▁संसद	-10.1207
▁flow	-10.1207
▁running	-10.121
வந்தத	-10.1212
७	-10.1218
▁modern	-10.1218
▁चले	-10.1219
▁member	-10.1219
▁कांग्रेस	-10.122
गम	-10.1224
▁wall	-10.1225
▁often	-10.1225
▁revealed	-10.1228
▁நம்ப	-10.1228
▁Union	-10.123
▁देखने	-10.123
▁नदी	-10.1231
एल	-10.1231
▁guess	-10.1232
▁उद्यम	-10.1232
ान्त	-10.1236
▁वैज्ञानिक	-10.1236
▁stone	-10.1237
▁limit	-10.1237
▁स्प	-10.1244
ris	-10.1245
▁गति	-10.1249
கடத்த	-10.1249
▁ज़	-10.1249
▁जिनमें	-10.1251
ju	-10.1253
ரீ	-10.1257
▁आयात	-10.1258
ஊ	-10.126
फी	-10.1268
▁hours	-10.1271
▁Dis	-10.1275
▁fair	-10.1277
▁according	-10.1279
▁संभव	-10.1281
sk	-10.1282
्न	-10.1283
▁Move	-10.1283
றய	-10.1286
▁प्रकट	-10.1286
களன்	-10.1288
▁ஒரவ	-10.1288
धान	-10.1289
▁institutions	-10.1291
▁Thus	-10.1294
▁बैठक	-10.1294
▁व्यापक	-10.1301
▁பறக	-10.1303
▁buy	-10.1303
▁बंगाल	-10.1306
▁allowed	-10.1307
▁approach	-10.1309
▁fe	-10.131
▁direct	-10.1312
▁Maha	-10.1313
detail	-10.1314
ऊ	-10.1316
▁सामग्री	-10.1319
Name	-10.132
▁சந்த	-10.1328
சன்ற	-10.1335
▁hath	-10.1342
▁across	-10.1346
ier	-10.1349
AT	-10.1349
▁பக	-10.1351
▁000	-10.1356
▁thee	-10.136
▁referred	-10.1361
▁server	-10.1368
▁com	-10.1369
▁chance	-10.137
धर	-10.1373
ुल	-10.1373
▁hi	-10.1374
ld	-10.1377
▁fr	-10.1378
▁जवाब	-10.1383
▁கவம்	-10.1384
▁paper	-10.1384
நடக்க	-10.1385
▁RRB	-10.1385
இரக்கற	-10.1387
▁Ad	-10.139
▁करा	-10.1391
றம்	-10.1395
तु	-10.1395
▁regard	-10.1395
▁Give	-10.1396
▁कहो	-10.1398
▁मालूम	-10.1401
▁tomorrow	-10.1404
தரம்ப	-10.1405
▁संरचना	-10.1407
tar	-10.1418
रम	-10.1419
▁समारोह	-10.1427
ियो	-10.1428
स्प	-10.1428
மடயம்	-10.143
lar	-10.1433
▁manner	-10.1434
▁21	-10.1439
▁उचित	-10.1439
▁mis	-10.1447
▁spread	-10.1447
▁अध्यक्ष	-10.1451
▁बने	-10.1456
▁संकेत	-10.1459
ங்களல்	-10.1461
▁notice	-10.1467
ute	-10.147
▁decided	-10.1472
▁इतना	-10.1473
▁kid	-10.1475
¤¿	-10.1476
▁condition	-10.1485
▁केंद्रीय	-10.1489
nch	-10.1492
▁minutes	-10.1492
▁समझा	-10.1493
▁बातों	-10.1498
▁parents	-10.1499
▁संदर्भ	-10.1502
▁पुरस्कार	-10.1502
▁महत्व	-10.1505
▁desire	-10.1505
nal	-10.1505
▁அதக	-10.1506
▁கஞ்சம்	-10.151
இன	-10.1522
▁बोल	-10.1522
க்கல	-10.1527
▁step	-10.1528
par	-10.1529
▁na	-10.1534
▁ஏ	-10.1535
▁general	-10.1535
▁बयान	-10.1536
▁method	-10.1537
கழந்த	-10.1539
▁बचा	-10.1539
▁eye	-10.1539
ans	-10.154
▁network	-10.154
सल	-10.1544
ண்ண	-10.1548
▁எனக்கத	-10.1563
▁लि	-10.1564
மகவம்	-10.157
▁judge	-10.157
▁பற்ற	-10.1572
गल	-10.1575
▁setting	-10.1576
மத்த	-10.1578
பழ	-10.1579
▁pick	-10.1582
▁पश्चात	-10.1584
▁Thanks	-10.1589
पक	-10.159
by	-10.1592
time	-10.1593
ट्ट	-10.1595
▁considered	-10.1603
▁Ju	-10.1603
▁நன்த	-10.1607
za	-10.1608
▁आवेदन	-10.1611
▁मुँह	-10.1611
▁डिस्क	-10.1611
▁கத	-10.1612
▁Which	-10.1614
▁रक्षा	-10.1615
▁rec	-10.162
▁सुना	-10.1621
▁दिखाई	-10.1628
▁घटना	-10.163
पाल	-10.1631
09	-10.1631
प्त	-10.1633
▁List	-10.1633
▁पुरुष	-10.1634
ट्र	-10.1645
▁cover	-10.165
▁80	-10.1651
▁century	-10.1652
ஷன்	-10.166
्ल	-10.166
▁instrument	-10.1664
▁fo	-10.1664
▁thy	-10.1667
▁prayer	-10.1667
மனவ	-10.1677
▁க்கறன்	-10.1685
▁duty	-10.1686
▁प्रदर्शन	-10.1691
No	-10.1692
ged	-10.1695
நம	-10.1697
இரக்கறன்	-10.1704
ash	-10.1714
▁गैर	-10.1719
lan	-10.1722
istic	-10.1724
▁बच	-10.1726
மதர	-10.1729
▁investment	-10.173
9	-10.173
▁hundred	-10.1732
ந்தர	-10.1732
▁However	-10.1735
▁देती	-10.1735
▁संगीत	-10.1744
நங்கள்	-10.1752
▁particular	-10.176
▁verily	-10.1765
▁dance	-10.1768
சறந்த	-10.1774
pl	-10.1776
▁specified	-10.1777
▁character	-10.1778
▁योगदान	-10.1781
नेवाले	-10.1783
ell	-10.1784
▁खरीद	-10.1784
IS	-10.1788
▁शख्स	-10.1792
म्प	-10.1797
ेश	-10.1802
▁North	-10.1802
▁दिवस	-10.1802
spir	-10.1803
▁private	-10.1804
्ति	-10.1805
▁इनमें	-10.1807
▁sit	-10.181
▁felt	-10.1813
▁Parliament	-10.1818
▁बाप	-10.1818
ांत	-10.182
▁Gra	-10.1825
▁terms	-10.1825
▁Ki	-10.1829
▁transfer	-10.1831
▁perfect	-10.1834
▁training	-10.1837
फिर	-10.1841
▁normal	-10.1842
▁worry	-10.1846
▁வளய	-10.1848
▁however	-10.185
ர்வ	-10.185
▁changes	-10.1852
▁spirit	-10.1852
▁गलत	-10.1852
▁article	-10.1852
>	-10.1853
ட்டல்	-10.1854
fer	-10.1863
▁international	-10.1867
▁रहेंगे	-10.1869
17	-10.1871
ச்சல்	-10.1871
▁wants	-10.1871
பச்ச	-10.1871
தப்ப	-10.1879
ட்டர்	-10.1879
▁स्वतंत्रता	-10.1882
▁पुस्तक	-10.1883
▁சன்ன	-10.1884
▁पालन	-10.1886
▁पड़ा	-10.1892
▁उत्पाद	-10.1893
ugh	-10.1894
टो	-10.1896
▁benefit	-10.19
र्ण	-10.1909
ns	-10.1912
पत	-10.1917
यह	-10.1917
ழ்	-10.1917
▁study	-10.1919
cy	-10.192
my	-10.1923
▁consider	-10.1924
▁औद्योगिक	-10.1925
▁gives	-10.1926
▁மர்	-10.1927
01	-10.1928
▁मुद्रा	-10.193
▁Per	-10.1933
▁शायद	-10.194
▁receive	-10.1946
▁இன	-10.1948
स्व	-10.1949
▁INDIA	-10.1949
எழ	-10.1951
▁निजी	-10.1952
्वा	-10.1953
▁தரயம்	-10.1955
▁freedom	-10.1959
¤	-10.1962
ren	-10.1967
▁Gandhi	-10.1967
ेल	-10.1967
▁இரந்த	-10.197
▁கர்	-10.1972
▁exchange	-10.1986
▁किंतु	-10.1986
▁Such	-10.1988
▁अपराध	-10.1989
▁Constitution	-10.199
சம்	-10.1991
▁रखना	-10.1992
▁parts	-10.1992
▁मद	-10.1993
▁basis	-10.1999
ved	-10.2003
▁बर	-10.2004
▁giving	-10.2009
▁Surely	-10.2012
▁born	-10.202
▁மர	-10.2023
anda	-10.2026
▁ob	-10.2029
▁साफ	-10.2029
▁एल	-10.2033
நய	-10.2034
கீழ	-10.2035
▁आत्म	-10.2036
cha	-10.2041
கப்ப	-10.2042
ख़ुदा	-10.2042
चि	-10.2045
▁structure	-10.2046
லல்	-10.205
ाइट	-10.205
▁बदले	-10.2053
15	-10.2053
▁neither	-10.2057
▁card	-10.2057
யவ	-10.206
▁matters	-10.206
ंगे	-10.2064
▁சம	-10.2072
▁Raj	-10.2075
टि	-10.2079
las	-10.2084
▁Bengal	-10.2084
▁Bu	-10.2086
▁रखो	-10.2096
▁request	-10.2096
▁वजह	-10.2097
▁ஆனல்ந	-10.2099
வச்ச	-10.21
sp	-10.21
ex	-10.2102
▁favour	-10.2103
hal	-10.2104
▁चयनित	-10.2108
வண	-10.2111
▁एशिया	-10.2113
▁दशा	-10.2117
▁Council	-10.2119
लों	-10.212
यू	-10.2127
▁आशा	-10.2128
நள்	-10.2129
▁வரம்ப	-10.2134
▁நங்க	-10.2138
▁wealth	-10.2147
பணம்	-10.2149
▁global	-10.215
▁फेर	-10.215
आयतों	-10.2153
▁ones	-10.2155
ath	-10.2156
▁spend	-10.2162
▁चाहिये	-10.2162
▁Muslim	-10.2162
டர்	-10.2163
ON	-10.2164
▁South	-10.2164
ient	-10.2165
▁ஒரந	-10.2166
▁cons	-10.2167
▁died	-10.2172
உயர	-10.2174
▁program	-10.2176
▁offer	-10.218
▁ख़	-10.218
ew	-10.2183
▁31	-10.2184
மயற்ச	-10.2187
▁Moses	-10.2189
▁display	-10.219
light	-10.2194
▁harm	-10.2196
▁pretty	-10.2206
dra	-10.2206
கண்	-10.2208
▁wouldn	-10.2208
▁संग्रह	-10.2211
வண்டம	-10.2211
ப்ர	-10.2216
அர	-10.2217
▁explain	-10.2225
▁फा	-10.2227
ां	-10.2229
▁poet	-10.2229
जर	-10.2235
▁enjoy	-10.2239
▁Sha	-10.2241
▁क्ल	-10.2247
▁payment	-10.2247
chan	-10.225
▁भा	-10.2251
ரல்	-10.2251
▁appointed	-10.2252
▁निम्न	-10.2253
▁War	-10.2257
html	-10.2258
jo	-10.2263
▁बोर्ड	-10.2263
hy	-10.228
வயத	-10.228
ப்பட்டத	-10.2283
▁ill	-10.2284
▁கழந்த	-10.2285
உயர்	-10.2289
▁crore	-10.2291
▁அதப	-10.2294
▁science	-10.23
pt	-10.2301
bar	-10.2302
▁अवश्य	-10.2307
िट	-10.2307
ूँ	-10.2314
▁messages	-10.232
ush	-10.232
மன்ற	-10.2321
ரஸ்	-10.2323
▁Director	-10.2324
▁நட	-10.2324
▁Only	-10.2328
கம	-10.2328
▁வழ	-10.2329
▁haven	-10.2333
சத	-10.2335
▁लागत	-10.2335
val	-10.2336
▁निर्देश	-10.2338
▁drive	-10.2341
▁piece	-10.2343
▁व्यक्तियों	-10.2344
▁महिला	-10.2354
▁Pu	-10.2358
வய்ப்ப	-10.236
▁earlier	-10.2363
▁black	-10.237
▁King	-10.2375
▁Tra	-10.2375
mm	-10.2378
▁राय	-10.2379
ava	-10.2384
ाह	-10.2385
நன்றக	-10.2391
▁कविता	-10.2393
lly	-10.2396
▁नाटक	-10.24
▁official	-10.2405
▁management	-10.2406
▁आयोजित	-10.2417
mal	-10.2422
▁forget	-10.2425
▁film	-10.2426
▁ग़	-10.2426
isation	-10.2428
ட்ச	-10.2431
▁loan	-10.2437
ala	-10.2437
ஆட	-10.2437
हीन	-10.2438
vol	-10.2442
▁god	-10.2454
▁religious	-10.2456
இரப்ப	-10.2457
lam	-10.2458
▁followed	-10.2467
▁Public	-10.2472
RA	-10.2476
▁प्रो	-10.2478
▁रक्त	-10.2482
ரப்ப	-10.2484
நடத்த	-10.2488
▁लेखक	-10.249
▁Information	-10.2491
ces	-10.2493
▁ர்க்க	-10.2493
ोल	-10.2499
ந்தத	-10.2502
▁पांच	-10.251
ॅ	-10.2511
தரயம	-10.2512
▁विधान	-10.2514
இறந்த	-10.2515
▁Plan	-10.2528
▁Bar	-10.2529
▁Verily	-10.253
▁lose	-10.2533
▁எங்களக்க	-10.2538
ake	-10.2542
▁வங்க	-10.2544
मक	-10.2545
▁वित्त	-10.2547
mor	-10.2549
८	-10.2549
05	-10.2557
▁मजबूत	-10.2559
▁सफल	-10.2562
கள்வ	-10.2562
ஜ்	-10.2564
▁mom	-10.2567
▁ண	-10.2568
அழக்க	-10.2568
▁doctor	-10.2572
▁Pat	-10.2573
gan	-10.2574
ணம்ன	-10.2578
▁चा	-10.2578
▁उपकरण	-10.2581
९	-10.2588
▁dec	-10.259
fin	-10.259
een	-10.2599
He	-10.2601
aries	-10.2602
▁ढंग	-10.2602
▁content	-10.2606
தரயத	-10.2607
ack	-10.2609
भूत	-10.2609
▁Bi	-10.261
▁separate	-10.2611
▁specific	-10.2612
எதவம்	-10.2613
▁Whether	-10.2614
▁purposes	-10.2615
▁शेयर	-10.2615
▁प्रभावित	-10.262
▁dear	-10.262
ள்ளத	-10.2622
▁सेट	-10.2622
क्षण	-10.2626
▁ளய	-10.2627
▁வள	-10.2628
னய	-10.2628
▁சற	-10.2629
▁என்னல்	-10.2631
▁issued	-10.2633
▁strength	-10.2634
▁Add	-10.2638
▁देंगे	-10.2641
▁temple	-10.2648
िय	-10.2653
▁23	-10.2654
▁fun	-10.2655
▁தரம்ப	-10.2656
tax	-10.2657
▁conditions	-10.2661
▁Bha	-10.2665
▁मौ	-10.2667
▁married	-10.267
▁बैठ	-10.267
▁मुक्त	-10.2671
डो	-10.2674
▁unit	-10.2676
▁Bill	-10.2688
▁கறன்	-10.2691
▁हु	-10.2693
▁Great	-10.2695
▁appear	-10.2696
க்கப்பட்ட	-10.2698
▁तंत्र	-10.2701
pic	-10.2707
▁रखे	-10.2715
▁Ko	-10.2716
bb	-10.2718
▁सर्व	-10.272
तन	-10.2725
▁पर्याप्त	-10.2726
▁ரந்த	-10.2729
▁El	-10.273
ப்படம்	-10.2731
▁built	-10.2733
▁feed	-10.2736
▁ab	-10.2736
▁print	-10.2738
▁pe	-10.2741
▁thus	-10.2743
ray	-10.2743
uch	-10.2745
▁Muslims	-10.2745
பள	-10.2753
ern	-10.2755
ரக்கன்	-10.2758
▁डाला	-10.2761
युक्त	-10.2763
ளக்க	-10.2765
சய்வத	-10.2767
ek	-10.2769
▁2000	-10.2779
▁picture	-10.2779
क्ति	-10.2779
▁प्रकाशित	-10.278
City	-10.2781
ल्ट	-10.2784
க்கவல்ல	-10.2785
▁voice	-10.2785
▁22	-10.2788
50	-10.2789
▁creation	-10.2794
पूर्वक	-10.2794
ries	-10.2794
▁நன்ந	-10.28
▁सफलता	-10.2805
▁மழ	-10.2805
▁Comp	-10.2807
lf	-10.2813
▁white	-10.2822
▁मुखर्जी	-10.2822
சற	-10.2827
डि	-10.2828
▁அதம	-10.283
▁हासिल	-10.2832
mukherjee	-10.2832
▁Pan	-10.2832
▁खर्च	-10.2833
▁â	-10.2833
pranab	-10.2835
▁दूसरा	-10.2839
▁தட	-10.2846
▁grow	-10.2849
▁बैठे	-10.2853
▁Prophet	-10.2854
▁efforts	-10.2855
சண்ட	-10.2856
▁organ	-10.2856
▁लाने	-10.2858
▁expect	-10.286
▁संस्कृति	-10.286
इन	-10.2863
▁deny	-10.2864
▁नेटवर्क	-10.2865
அழக	-10.2881
▁वायु	-10.2883
▁American	-10.2885
▁रकम	-10.2886
▁Every	-10.2888
▁meaning	-10.2899
▁couldn	-10.2899
र्द	-10.2901
▁profit	-10.2902
▁rules	-10.2904
जीव	-10.2906
▁gotta	-10.291
▁றம்	-10.2911
▁Time	-10.2912
ஓட	-10.2916
▁original	-10.2919
▁सकें	-10.2926
கன்	-10.2937
ham	-10.2938
டல்	-10.2941
▁अवस्था	-10.2942
▁issue	-10.2948
▁effective	-10.2949
கறர்கள்	-10.295
எண்ண	-10.2954
து	-10.2958
60	-10.2961
ஜன்	-10.2961
▁bi	-10.2961
▁सुरक्षित	-10.2966
▁device	-10.2966
▁खो	-10.297
பன்ற	-10.2972
▁पर्यावरण	-10.2973
lay	-10.2979
▁worth	-10.2986
▁instead	-10.2986
அவங்க	-10.2989
▁Sub	-10.299
put	-10.2992
▁̧à	-10.2993
kin	-10.2994
▁व्यवहार	-10.2994
▁व्या	-10.2997
▁எல்லரம்	-10.2997
மஸ்	-10.2998
படக்க	-10.2998
RI	-10.3003
फर	-10.3013
चन	-10.3015
र्न	-10.3015
▁तु	-10.3018
▁cr	-10.3018
▁Officer	-10.3021
▁बर्	-10.3022
▁lu	-10.3023
அன்ப	-10.3025
▁निम्नलिखित	-10.3027
▁kids	-10.3028
▁star	-10.3031
▁எங்கள்	-10.3034
லவ	-10.3038
▁allow	-10.3039
▁युग	-10.3043
II	-10.3045
▁चुकी	-10.3045
▁simple	-10.3051
ज्	-10.3051
▁பர்த்த	-10.3051
▁disbelieve	-10.3051
thi	-10.3052
ீர்	-10.3056
▁author	-10.3057
▁developed	-10.3064
14	-10.3072
dia	-10.3074
बि	-10.3075
டம	-10.3075
▁28	-10.3077
▁எல்லம்	-10.3078
றீங்க	-10.3079
▁அவரத	-10.3079
योग	-10.3079
▁बनी	-10.308
உண்ம	-10.308
ture	-10.3085
▁rather	-10.3093
▁प्राण	-10.3098
if	-10.3101
▁programme	-10.3102
▁उद्	-10.3103
யத்த	-10.3105
▁store	-10.3105
♪	-10.3105
கஇர	-10.3107
▁आपकी	-10.3107
स्ट्र	-10.3108
▁direction	-10.3109
▁असफल	-10.3113
▁नव	-10.3118
▁goods	-10.3119
▁व्यक्त	-10.3119
▁persons	-10.3119
▁भारी	-10.3121
▁डॉ	-10.3121
▁எங்கள	-10.3121
▁गीत	-10.3126
▁third	-10.3126
र्ग	-10.313
இரக்கன்	-10.3131
▁Listen	-10.3132
மறந்த	-10.3135
ப்பன	-10.3136
प्ल	-10.3137
▁चर्चा	-10.3143
▁Ku	-10.3143
பறக	-10.3144
▁சவ	-10.3147
▁संरक्षण	-10.3147
▁बधाई	-10.315
▁வய	-10.3151
19	-10.3152
External	-10.3153
जू	-10.3154
▁supposed	-10.3155
▁Pe	-10.3156
▁population	-10.3157
▁seat	-10.3158
▁आत्मा	-10.3158
▁feet	-10.3161
சப்பட	-10.3162
▁सेवाओं	-10.3162
ज़ी	-10.3166
▁हवा	-10.3166
▁भाव	-10.3168
▁West	-10.3168
▁focus	-10.3171
▁Error	-10.3174
▁Muhammad	-10.3175
▁लघु	-10.3178
▁ensure	-10.3182
▁प्रमाणपत्र	-10.3185
▁विशाल	-10.3187
▁यद्यपि	-10.3188
qua	-10.3189
दि	-10.319
▁win	-10.319
▁multi	-10.3192
▁மீண்டம்	-10.3193
▁बाग़	-10.3194
▁raised	-10.3195
▁mine	-10.3197
दाय	-10.3199
द्द	-10.3201
டக்க	-10.3203
▁opens	-10.3203
▁mark	-10.3207
்க	-10.3207
्ज	-10.3208
க்கவண்டம்	-10.3213
nc	-10.3214
▁Institute	-10.3219
वल	-10.3223
ளம்	-10.3225
▁केन्द्रीय	-10.3226
▁என்னடம்	-10.3229
▁station	-10.3231
▁ख़बर	-10.3245
▁ईश्वर	-10.3247
▁इच्छा	-10.3249
▁26	-10.325
த்தய	-10.3251
ச்சல்ல	-10.3253
வணம்	-10.3254
form	-10.3257
▁industrial	-10.3261
▁कहना	-10.3264
▁राजनीतिक	-10.3267
ताओं	-10.3271
न्त	-10.3272
▁सीधे	-10.3272
▁दस	-10.3272
ada	-10.3273
वर्ती	-10.3274
▁सम्मान	-10.3274
It	-10.3275
▁birth	-10.3278
அல	-10.3278
▁foot	-10.3279
▁साधन	-10.3284
கஞ்சம்	-10.3288
▁सम्मेलन	-10.3292
த்தவ	-10.3293
▁कवि	-10.3294
ोन	-10.3296
▁lakh	-10.3296
▁वर्णन	-10.3297
▁மன்னக்கவம்	-10.3299
▁assessee	-10.3299
iff	-10.3306
ख्त	-10.3307
▁Ri	-10.3308
▁शांति	-10.3308
பங்க	-10.3329
नाम	-10.3331
vers	-10.3331
name	-10.3333
▁fi	-10.3336
▁failed	-10.3339
▁டய	-10.3341
எடக்க	-10.3348
▁base	-10.3354
ned	-10.3357
▁நமக்க	-10.3358
▁literature	-10.3358
▁शब्दों	-10.3364
▁gu	-10.3364
▁चयन	-10.3365
▁waiting	-10.3365
▁quot	-10.3366
▁என	-10.3367
▁institution	-10.3372
▁stuff	-10.3373
▁Sc	-10.3376
▁physical	-10.3383
▁consist	-10.339
ेक	-10.3393
क्रम	-10.3395
▁document	-10.3398
▁आयोग	-10.3403
தடங்க	-10.3404
wo	-10.3404
▁நறத்த	-10.3404
लिंग	-10.3405
▁copy	-10.3407
▁looks	-10.3412
like	-10.3412
▁Ke	-10.3414
பம்	-10.3417
ஐய	-10.3418
▁27	-10.342
▁Ya	-10.3424
▁அதந	-10.3426
▁இவ	-10.3429
▁count	-10.3429
ல்ப	-10.343
▁Cannot	-10.3433
▁कदम	-10.3434
ல்இரந்த	-10.3435
ंगी	-10.3435
पूर	-10.3436
श्त	-10.3438
▁मिटा	-10.3441
▁शक	-10.3443
ரம	-10.3445
लैंड	-10.3446
▁ஏன்ன	-10.3446
▁opportunity	-10.3447
▁difference	-10.3447
▁उपस्थित	-10.3448
▁अपेक्षा	-10.3448
க்ர	-10.3449
द्व	-10.3452
ून	-10.3456
▁भोजन	-10.3458
▁female	-10.3461
▁join	-10.3468
▁संसाधन	-10.3477
▁कॉ	-10.3478
gh	-10.3482
▁अनिवार्य	-10.3486
▁சத்த	-10.3487
कृ	-10.3488
▁capacity	-10.3489
▁பர்க்க	-10.3493
▁எனக்கத்த	-10.3499
▁App	-10.3502
▁build	-10.3503
எழத	-10.3504
▁Use	-10.3505
ரச	-10.3505
▁Their	-10.3505
णी	-10.3505
எவ்வளவ	-10.3506
▁hour	-10.3506
இன்ன	-10.3512
▁शा	-10.3513
vel	-10.3514
ense	-10.3516
▁कंप्यूटर	-10.3518
नीय	-10.3519
▁ஒரவள	-10.352
▁பன்	-10.3521
▁निर्धारिती	-10.3524
▁Work	-10.3525
▁wrote	-10.3528
▁रखें	-10.3529
▁round	-10.3531
▁आता	-10.3533
मेंट	-10.3533
▁Je	-10.3535
▁sur	-10.3543
ரக்	-10.3544
▁प्राकृतिक	-10.3546
▁style	-10.3546
▁serious	-10.3549
▁prevent	-10.355
தன்ன	-10.3551
२	-10.3555
▁hospital	-10.3557
▁Two	-10.3559
நனக்கறன்	-10.3559
▁छोटी	-10.3561
தந்த	-10.3561
ீங்கள	-10.3566
▁trouble	-10.3571
पति	-10.3574
டல	-10.3575
▁Nothing	-10.3575
वाला	-10.3576
▁அடத்த	-10.3577
▁Any	-10.3579
▁समा	-10.3581
▁छोड़कर	-10.3581
▁Cl	-10.3585
ral	-10.3586
था	-10.3588
ates	-10.3589
▁prepared	-10.3589
நனக்க	-10.3596
▁அதச	-10.3597
▁World	-10.36
▁सां	-10.3602
▁प्रधान	-10.3604
▁ஒன்ற	-10.3604
▁गुणवत्ता	-10.3611
▁जिला	-10.3611
ko	-10.3611
▁ஒரம	-10.3614
▁connection	-10.3618
▁जाति	-10.3622
தட்ட	-10.3634
▁तारीख	-10.3634
▁तरीके	-10.3636
▁परिषद	-10.3636
▁assessment	-10.3637
▁Board	-10.3645
இரக்கலம்	-10.3649
▁அதத	-10.365
▁centre	-10.365
▁straight	-10.3654
▁ஆக	-10.3659
▁changed	-10.366
्यु	-10.3665
▁bound	-10.3666
▁Sy	-10.3667
▁Out	-10.3669
▁fish	-10.3669
▁(%	-10.3674
சஞ்ச	-10.3677
எதர்	-10.3682
▁Tri	-10.3685
▁Fe	-10.3686
▁ne	-10.3686
▁bed	-10.3687
▁righteous	-10.3688
तों	-10.369
▁cross	-10.369
hor	-10.3692
▁represent	-10.3692
▁dream	-10.3694
▁प्राचीन	-10.3694
जनक	-10.3696
आख़िरत	-10.3698
ஆய	-10.37
ाक	-10.3702
உர	-10.3702
ர்ட்	-10.3703
vin	-10.3704
▁हित	-10.3705
app	-10.3705
gin	-10.3706
▁details	-10.3708
▁रखी	-10.3713
her	-10.3716
▁speech	-10.3716
▁2014	-10.3717
களம்	-10.3719
lab	-10.372
▁Jesus	-10.3723
bha	-10.3724
்வ	-10.3725
▁resources	-10.3728
▁First	-10.3728
til	-10.3733
low	-10.3741
▁अता	-10.3748
¤2	-10.3752
▁யம	-10.3752
▁export	-10.3758
▁बताया	-10.376
ाइल	-10.376
ங்களக்க	-10.376
▁संपत्ति	-10.3761
ஒரப	-10.3762
▁cases	-10.3766
▁नगर	-10.3769
▁similar	-10.3774
▁शैतान	-10.3778
▁கழ	-10.3779
▁हस्ताक्षर	-10.3782
▁गिरोह	-10.3782
▁आते	-10.3785
▁अधिकांश	-10.3786
ரட்	-10.3787
▁प्रभावी	-10.3789
www	-10.3793
▁forgive	-10.3795
▁include	-10.3799
▁Israel	-10.38
▁विरुद्ध	-10.38
தற்க	-10.3801
▁alive	-10.3801
ाए	-10.3803
▁अभिलेख	-10.3804
▁Section	-10.3804
मंडल	-10.3805
ably	-10.3808
சட்ட	-10.381
▁१९	-10.3813
சன்னன்	-10.3815
▁டத்த	-10.382
▁folk	-10.3822
▁du	-10.3825
▁river	-10.3828
क़ा	-10.3829
▁places	-10.383
पोर्ट	-10.383
18	-10.3833
▁yes	-10.3833
பீ	-10.3833
உற	-10.3834
▁provision	-10.3835
▁Bal	-10.3836
▁design	-10.3837
धी	-10.3841
▁Qu	-10.3842
्द	-10.3844
கக்க	-10.3844
▁अगले	-10.3845
▁सख्त	-10.3847
ரந்தத	-10.3847
▁sky	-10.3848
மட்டம	-10.3848
▁सम्बन्ध	-10.385
▁तुलना	-10.3852
▁बन्दों	-10.3852
duct	-10.3854
गार	-10.3855
▁Par	-10.386
▁शिकायत	-10.3862
▁தய	-10.3864
▁உதவ	-10.3864
பரச்சன	-10.3865
▁धार्मिक	-10.3866
▁cor	-10.387
▁wind	-10.3871
LE	-10.3874
्त	-10.3874
▁angels	-10.3875
▁Asia	-10.388
▁அதற்க	-10.3881
▁Africa	-10.3881
▁सात	-10.3895
▁बो	-10.3895
த்தட	-10.3898
iii	-10.3902
▁மடயத	-10.3904
दु	-10.3906
र्च	-10.3906
கஇரக்க	-10.3907
▁US	-10.3915
றவ	-10.3916
▁औ	-10.3918
▁seems	-10.3918
▁Project	-10.3918
லன	-10.392
▁उपाय	-10.3923
சக்க	-10.3925
ஆர்	-10.3927
எதவ	-10.393
यम	-10.3932
▁प्रोग्राम	-10.3933
▁परीक्षा	-10.3935
▁Her	-10.3936
dha	-10.3945
▁fund	-10.3955
▁cop	-10.3959
▁note	-10.396
னவ	-10.3961
यें	-10.3962
ेन	-10.3964
▁बुला	-10.3964
▁बाज़	-10.3965
▁match	-10.3966
rd	-10.3967
▁क्रम	-10.3967
▁statement	-10.3968
▁moon	-10.3973
▁below	-10.3976
▁बनाना	-10.3979
▁मेल	-10.398
▁grant	-10.3983
▁depend	-10.3986
भाग	-10.3987
▁वीडियो	-10.3989
▁जोड़ें	-10.3989
xi	-10.3991
▁reached	-10.3991
▁takes	-10.3996
Q	-10.3996
ன்ட்	-10.4003
▁charge	-10.4004
▁दस्तावेज	-10.4006
sis	-10.4007
▁கப்ப	-10.4007
▁longer	-10.4009
▁पश्चिम	-10.4012
▁mankind	-10.4015
ify	-10.4016
ley	-10.4018
▁Lu	-10.4018
ஈ	-10.402
▁मिली	-10.4021
▁बुद्धि	-10.4022
▁कार	-10.4025
▁Chief	-10.4026
▁sa	-10.4028
▁beginning	-10.4031
▁apply	-10.4031
▁Mukherjee	-10.4034
atory	-10.4034
மக்கள்	-10.4036
पाद	-10.4038
▁TO	-10.4039
▁table	-10.404
क्र	-10.4041
▁log	-10.4043
▁Keep	-10.4043
टक	-10.4046
▁sort	-10.4053
नु	-10.4055
▁measure	-10.4058
▁विदेश	-10.4058
▁environment	-10.4059
யங்கள்	-10.4061
graph	-10.4061
▁தவ	-10.4063
▁चिकित्सा	-10.4064
▁मानक	-10.4067
▁चुन	-10.4068
▁இதஒர	-10.4068
▁ठ	-10.4069
▁आपका	-10.407
▁leg	-10.407
aw	-10.4075
▁शीघ्र	-10.4075
साथ	-10.4076
▁लेना	-10.4077
நமக்க	-10.4077
▁ahead	-10.4078
▁East	-10.4079
ग्रह	-10.4083
This	-10.4086
yo	-10.4088
▁agreement	-10.4088
▁नमाज़	-10.409
▁ju	-10.4093
கனவ	-10.4094
▁ball	-10.4095
बु	-10.4095
▁अधिकारियों	-10.4098
வய்	-10.41
▁Hu	-10.41
25	-10.4101
▁लगी	-10.4109
▁समाधान	-10.411
▁कुंजी	-10.4113
▁torment	-10.4113
▁issues	-10.4115
வர்கள	-10.4118
set	-10.4122
▁आंदोलन	-10.4124
▁shape	-10.4128
ஓட்ட	-10.413
▁load	-10.4136
▁taste	-10.4136
ina	-10.4139
देव	-10.4141
ட்ஸ்	-10.4145
▁Sabha	-10.4145
மலம்	-10.4146
TH	-10.415
▁skill	-10.4151
▁seem	-10.4156
▁संस्थानों	-10.4157
▁नर	-10.4157
▁str	-10.4158
▁अंक	-10.416
எர	-10.4162
▁Does	-10.4164
▁संभावना	-10.417
क्का	-10.4171
lit	-10.4173
▁पाने	-10.4174
grad	-10.4174
▁वी	-10.4176
▁संशोधन	-10.4176
▁Governor	-10.4177
▁ஒரச	-10.4179
▁शैली	-10.4185
▁carried	-10.4185
right	-10.4194
எங்களக்க	-10.4196
▁प्रणब	-10.4197
▁serve	-10.4198
▁அதஒர	-10.4201
तक	-10.4201
▁जल्दी	-10.4202
▁ancient	-10.4204
▁हिन्दी	-10.4214
ूद	-10.4215
த்தத	-10.4216
நர்	-10.4218
▁पुकार	-10.4219
ंगा	-10.422
ists	-10.4221
▁sweet	-10.4223
▁couple	-10.4223
▁Bharat	-10.4224
▁(3)	-10.4224
रस	-10.4226
▁मिलता	-10.4226
त्स	-10.4227
ku	-10.4233
மகன்	-10.4233
▁पंक्ति	-10.4235
▁attend	-10.4236
▁farmers	-10.4238
▁Republic	-10.4239
▁pr	-10.424
வண்டய	-10.4241
▁2015	-10.4241
இண	-10.4244
RO	-10.4246
கப	-10.4247
▁Min	-10.4247
▁कठिन	-10.4249
▁chi	-10.4252
▁அப்பறம்	-10.4259
▁murder	-10.4262
▁cool	-10.4263
▁Kar	-10.4268
▁माँग	-10.4269
லக	-10.427
▁minute	-10.4272
▁श्रेणीः	-10.4272
▁60	-10.4273
ालय	-10.4276
dar	-10.4277
gn	-10.4277
ठा	-10.4279
▁Rama	-10.4282
▁da	-10.4283
▁event	-10.4285
▁उन्हीं	-10.4285
▁Um	-10.4288
ஸ்ட்	-10.429
▁Pi	-10.4292
ency	-10.4293
ோ	-10.4293
▁Today	-10.4293
ea	-10.4293
பயன்படத்த	-10.4294
कता	-10.4294
▁हालत	-10.4295
நனவ	-10.4295
▁उम्मीद	-10.4296
▁breath	-10.4296
▁உண்மயல்	-10.4297
▁lower	-10.4298
▁ब्याज	-10.43
▁trans	-10.4302
தழ	-10.4303
▁risk	-10.4305
tract	-10.4307
▁उल्लेख	-10.4308
▁concerned	-10.432
▁cry	-10.4323
३	-10.4327
▁இதப	-10.4328
▁Commission	-10.4329
▁क्षमा	-10.433
ark	-10.4333
▁समझते	-10.4337
▁burn	-10.434
मुख	-10.4342
▁justice	-10.4344
▁United	-10.4347
▁जरूरी	-10.4348
கறய	-10.435
क्षित	-10.4351
▁status	-10.4352
cle	-10.4354
▁நல	-10.4355
▁हजार	-10.4359
▁प्रतीक	-10.436
सब	-10.4361
▁beyond	-10.4366
▁code	-10.4367
இன்ற	-10.4367
▁cast	-10.4369
▁Save	-10.4369
घात	-10.4372
▁middle	-10.4374
एन	-10.4378
स्ता	-10.438
அறவ	-10.4382
▁products	-10.4385
▁regular	-10.4389
▁संसार	-10.4395
▁asking	-10.4396
▁पत्थर	-10.4397
▁बिल	-10.4399
निया	-10.44
▁आयु	-10.4401
ाइड	-10.4402
▁contribution	-10.4405
▁correct	-10.4408
▁कीमत	-10.4414
வழக்க	-10.4418
▁especially	-10.4424
▁अनुप्रयोग	-10.4424
▁Em	-10.4425
▁खड़े	-10.4428
गें	-10.4429
with	-10.4429
ஸ்ப	-10.4432
▁क़सम	-10.4438
▁जाये	-10.444
▁While	-10.444
▁hair	-10.4443
▁युवा	-10.4444
▁झुठला	-10.4445
▁ठहरा	-10.4448
ाधिकार	-10.445
verse	-10.4451
▁நான்	-10.4452
ीर	-10.4452
▁सरल	-10.4454
▁sum	-10.4454
▁மதல்	-10.4456
नेवाला	-10.4459
ज़े	-10.4464
००	-10.4466
▁இரவ	-10.4467
▁perform	-10.447
▁Up	-10.4471
▁led	-10.4471
▁invest	-10.4479
பகத	-10.448
டப்ப	-10.4482
hara	-10.4483
मेल	-10.4485
▁Che	-10.4488
கண்ண	-10.4489
40	-10.449
▁gets	-10.449
▁warm	-10.4492
நண்பர்கள	-10.4495
▁हिदायत	-10.4495
कू	-10.4496
ன்ச	-10.4496
▁றத்த	-10.4496
▁मालिक	-10.4497
▁निर्मित	-10.4499
சல்ற	-10.45
▁whoever	-10.4515
▁मं	-10.4517
▁wonder	-10.4523
▁oil	-10.4523
▁para	-10.4529
▁विफल	-10.4533
கவன	-10.4534
▁track	-10.4543
▁तेल	-10.4545
▁Centre	-10.4546
▁Set	-10.4546
▁संकल्प	-10.4548
▁सारी	-10.4549
▁நனம்	-10.4553
▁popular	-10.4554
ल्स	-10.4555
▁Pur	-10.4556
▁गर्इ	-10.4556
▁पुलिस	-10.4559
▁கல்	-10.4562
▁रहती	-10.4565
▁choice	-10.4566
▁नियत	-10.4571
தரயல	-10.4573
▁exactly	-10.4573
▁Merciful	-10.4578
CE	-10.4578
▁மன்	-10.4578
யரக்க	-10.458
▁आती	-10.458
என்னடம்	-10.458
▁Really	-10.4581
▁Make	-10.4583
தடர்ப	-10.4585
▁marriage	-10.4586
தற	-10.4586
▁projects	-10.4586
▁करनी	-10.4588
▁யக	-10.459
▁பண்	-10.4591
ali	-10.4592
▁इबराहीम	-10.4594
▁फसल	-10.4595
மதல்	-10.4596
▁mar	-10.4597
दो	-10.4597
▁पिता	-10.4597
▁पद्धति	-10.4598
▁unless	-10.4598
கப்	-10.4598
अपने	-10.46
▁machine	-10.46
▁behalf	-10.4602
▁साधारण	-10.4606
▁वन	-10.4606
சறப்ப	-10.4608
लन	-10.4609
▁questions	-10.4611
ियम	-10.4611
▁மட்ட	-10.4612
▁mad	-10.4616
ock	-10.4625
▁pull	-10.4629
▁responsible	-10.4634
▁निर्भर	-10.4634
▁बिल्कुल	-10.4638
▁संस्कृत	-10.4638
श्	-10.4639
ौर	-10.464
▁April	-10.4642
அவ்வளவ	-10.4643
2019	-10.4646
▁contract	-10.4647
क्षा	-10.465
तल	-10.4652
▁पहुंचा	-10.4653
ச்சர	-10.4654
ls	-10.4654
▁final	-10.4655
▁பன	-10.4662
▁रहना	-10.4662
▁मानते	-10.4665
▁port	-10.4667
▁legal	-10.4668
▁dog	-10.4668
ade	-10.4671
ன்ப	-10.4672
▁Service	-10.4673
▁Hell	-10.4676
▁honour	-10.4677
வீட்ட	-10.468
▁economy	-10.4681
gram	-10.4688
▁जाँच	-10.4691
ेर	-10.4692
▁छोटा	-10.4694
▁करनेवालों	-10.4696
लक	-10.4699
த்தட்ட	-10.4701
▁पथ	-10.4701
▁चे	-10.4706
igh	-10.4706
ज्ञ	-10.4708
▁reform	-10.471
▁वार्षिक	-10.4711
एगा	-10.4712
az	-10.4712
▁ब्रिटिश	-10.4714
▁Si	-10.4714
▁needed	-10.4721
மீ	-10.4722
▁अर्थव्यवस्था	-10.4722
▁0.	-10.4723
▁आदर्श	-10.4724
▁आपने	-10.4728
▁tradition	-10.4729
▁award	-10.4732
▁welcome	-10.4734
▁जहन्नुम	-10.4735
▁चाल	-10.4735
og	-10.4735
्रे	-10.4735
▁Sri	-10.474
▁ஐய	-10.4741
▁तुमपर	-10.4742
▁ஏதவத	-10.4745
▁mistake	-10.475
தத	-10.4752
▁कहेंगे	-10.4753
ST	-10.4753
▁astray	-10.4754
▁gun	-10.4754
ंब	-10.4756
टल	-10.4761
▁relationship	-10.4762
▁3.	-10.4763
▁carry	-10.477
ब्र	-10.4772
▁अंदर	-10.4775
dal	-10.4776
▁नी	-10.4779
▁किसानों	-10.478
ising	-10.4785
▁सीमित	-10.4788
▁conf	-10.4796
▁Islam	-10.4799
▁forest	-10.48
▁hate	-10.4802
wan	-10.4803
▁मौजूदा	-10.4803
ஆள	-10.4807
▁நச்சயமக	-10.4811
ரட	-10.4812
cus	-10.4814
▁besides	-10.4815
▁girls	-10.4818
▁grand	-10.4821
▁playing	-10.4824
▁rock	-10.4826
உணர	-10.4827
तुम	-10.4829
▁begin	-10.4832
▁सच्चे	-10.4835
ஐந்த	-10.4836
▁drop	-10.4839
ரக்கறத	-10.4839
▁rural	-10.4843
கல்ல	-10.4847
▁telling	-10.4851
फ़ा	-10.4852
▁खुलती	-10.4853
▁निगम	-10.4854
▁ஞ்ச	-10.4856
▁सिद्ध	-10.4856
▁ईसा	-10.4859
மகவ	-10.486
▁समुद्र	-10.4861
own	-10.4865
र्त	-10.4871
பட்	-10.4871
▁John	-10.4872
அளவ	-10.4875
▁गुनाह	-10.488
rus	-10.4882
▁கம்	-10.4887
▁उतार	-10.4888
▁व्यक्तिगत	-10.4891
▁published	-10.4894
▁Trans	-10.4894
▁टा	-10.4896
▁guided	-10.4898
▁विवाह	-10.4899
ura	-10.4899
▁शताब्दी	-10.49
्ह	-10.4903
िये	-10.4903
वृत्त	-10.4905
▁அவளக்க	-10.4907
▁sight	-10.4908
▁विचारों	-10.4908
▁घोषणा	-10.4908
பஸ்	-10.4909
▁வன்	-10.4911
▁certificate	-10.4913
nath	-10.4913
▁ताल	-10.4913
श्व	-10.4915
▁cell	-10.4919
▁par	-10.4919
▁அதன்	-10.492
▁Would	-10.4929
▁moving	-10.4929
▁fit	-10.4931
▁essential	-10.4933
com	-10.4935
பந்த	-10.4935
▁छा	-10.4936
▁Ver	-10.4938
मर	-10.4939
▁மண	-10.4943
सो	-10.4946
▁j	-10.4946
▁शिव	-10.4951
▁worked	-10.4953
▁se	-10.4955
▁विंडों	-10.4957
▁Sh	-10.4957
இரந்தன்	-10.4957
▁civil	-10.4957
▁cre	-10.4957
▁योग	-10.4958
▁विरोध	-10.496
▁मुख	-10.496
இப்பட	-10.496
वें	-10.4961
ெ	-10.4962
சர்ந்த	-10.4969
▁scale	-10.4971
▁प्रदर्शित	-10.4974
वाले	-10.4974
▁शुल्क	-10.4975
▁accepted	-10.4975
▁स्थल	-10.4976
▁कार्यों	-10.4976
▁box	-10.4976
▁caused	-10.4976
मैं	-10.4978
▁̈à	-10.4978
எப்பதம்	-10.4979
ok	-10.498
மயன	-10.4983
▁hot	-10.4984
▁पाए	-10.4985
▁names	-10.4986
▁पश्चात्	-10.4992
▁शेष	-10.4992
▁तर्क	-10.4995
▁Last	-10.4999
त्मक	-10.5
▁भूल	-10.5005
அவரத	-10.5006
ண்	-10.5014
रेख	-10.5018
▁root	-10.5021
डर	-10.5023
▁tra	-10.5023
▁Over	-10.5024
िज	-10.5026
▁आतंकवाद	-10.5031
▁काट	-10.5034
நய்	-10.5036
▁deposit	-10.5038
▁forms	-10.5041
சன	-10.5045
▁press	-10.5047
▁நறய	-10.5051
வடம்	-10.5052
▁states	-10.5052
▁belongs	-10.5053
▁comm	-10.5054
अप	-10.5059
iya	-10.506
▁ண்	-10.506
▁मूर्ति	-10.5064
▁பரவயல்ல	-10.5066
வீ	-10.5069
▁Sanskrit	-10.507
▁तट	-10.507
07	-10.5073
▁खास	-10.5074
▁site	-10.5077
க்கலம்	-10.5078
▁सम्मिलित	-10.5078
▁relating	-10.5078
▁इन्	-10.5081
▁डा	-10.5082
▁पड़ता	-10.5089
▁तुममें	-10.509
த்தவட	-10.5091
दूसरे	-10.5092
▁सदैव	-10.5095
िड	-10.5095
शे	-10.5097
த்தரய	-10.5098
▁अंग्रेजी	-10.5098
▁अत्यंत	-10.5099
▁बन्द	-10.51
▁Help	-10.5102
▁strengthen	-10.5103
▁मनो	-10.5106
டக்	-10.5106
▁tonight	-10.5107
கடத்தத	-10.5107
▁महीने	-10.5107
दास	-10.5107
▁import	-10.511
ஹய்	-10.5111
णा	-10.5114
▁2013	-10.5118
▁rise	-10.5119
பள்ள	-10.5119
▁leaders	-10.512
▁स्थायी	-10.512
வர்த்த	-10.5123
ப்பல	-10.5127
▁चरण	-10.5128
च्च	-10.5129
lip	-10.5129
▁Pri	-10.5131
▁miss	-10.5132
SE	-10.5133
itation	-10.5134
▁डेटा	-10.5134
▁बढ़ाने	-10.5139
மன்ப	-10.514
▁इंडिया	-10.5141
▁looked	-10.5144
▁standing	-10.5145
13	-10.5146
பயர்	-10.5146
log	-10.5147
▁தரயம	-10.5147
▁Technology	-10.5149
▁अंग्रेज	-10.515
▁हृदय	-10.5157
▁active	-10.5161
▁permission	-10.5163
टन	-10.5165
▁யன	-10.5167
शास्त्र	-10.5173
▁potential	-10.5174
▁um	-10.5175
hen	-10.5178
▁Shi	-10.5178
▁immediately	-10.5178
▁heaven	-10.5185
lig	-10.5187
hra	-10.5187
▁vision	-10.519
▁दिलों	-10.5192
In	-10.5193
▁Income	-10.5195
▁शक़	-10.5196
▁Pranab	-10.52
▁memory	-10.52
▁provides	-10.5202
▁afraid	-10.5204
▁version	-10.5205
iving	-10.5206
▁ways	-10.5208
kha	-10.5208
▁இதம	-10.521
▁चू	-10.5211
exp	-10.5212
▁IN	-10.5212
▁lies	-10.5212
▁अपील	-10.5217
▁began	-10.5218
▁हल	-10.5222
▁कप	-10.5223
cid	-10.5231
▁अप्रैल	-10.5233
▁பக்க	-10.5235
▁Scheme	-10.5238
▁aware	-10.5238
IR	-10.5239
read	-10.5241
▁bus	-10.5245
▁नागरिक	-10.5246
EN	-10.5254
▁सदन	-10.5256
▁रहेगा	-10.5261
SS	-10.5262
கறீர்கள	-10.5263
▁संघर्ष	-10.5264
▁Sur	-10.5266
▁sometimes	-10.5272
ita	-10.5275
ook	-10.5277
▁goal	-10.529
बाहरी	-10.529
खे	-10.5295
ope	-10.5295
▁तथ्य	-10.5297
▁जाय	-10.5299
▁प्रयोजनों	-10.53
தீ	-10.5301
दन	-10.5301
▁फि	-10.5304
▁nine	-10.5306
▁ந்தத	-10.531
▁व्यय	-10.5312
पट	-10.5313
▁influence	-10.5314
▁usually	-10.5314
ky	-10.5316
▁आपस	-10.5317
39	-10.5317
மக்கள	-10.5318
▁तेजी	-10.5318
▁नोट	-10.5319
▁மல்	-10.5326
▁attention	-10.5326
▁choose	-10.5327
▁फैला	-10.5328
▁Sign	-10.5329
▁Message	-10.5336
▁suffer	-10.5336
UT	-10.5344
▁Education	-10.5344
▁suggest	-10.5348
▁develop	-10.5349
ம்ச	-10.535
டீ	-10.535
▁saved	-10.5352
▁mouth	-10.5353
▁college	-10.5357
▁चुनाव	-10.5358
▁attract	-10.536
▁During	-10.5361
ற்கக	-10.5363
பயன்	-10.5364
र्थ	-10.537
சட	-10.5371
▁target	-10.5374
न्ट	-10.5375
▁mental	-10.5376
▁ரம	-10.5377
டப	-10.5379
▁मार्च	-10.538
▁அவனக்க	-10.5381
▁नौ	-10.5382
▁disbelievers	-10.5384
▁2016	-10.5385
▁வல்	-10.5385
cause	-10.5386
▁department	-10.5387
▁returned	-10.5388
▁निशानियाँ	-10.5392
க்கன	-10.5397
▁दृष्टिकोण	-10.54
▁நஜம	-10.5403
▁மதர	-10.5406
LA	-10.5407
हन	-10.5411
▁க்கறத	-10.5413
▁green	-10.5414
ீஸ்	-10.5416
▁leaving	-10.5417
▁दुर्	-10.5424
यक	-10.5425
टिक	-10.5425
▁treatment	-10.5425
▁बढ़ावा	-10.5426
▁गंभीर	-10.5426
▁लगाया	-10.5432
வழய	-10.5439
â	-10.5441
நள	-10.5444
▁objective	-10.5446
▁கண	-10.5448
ेज	-10.5453
▁मना	-10.5455
▁Under	-10.5455
hin	-10.5456
▁பய	-10.5456
▁भय	-10.5458
▁ja	-10.5459
bin	-10.546
▁अनुच्छेद	-10.5461
▁Wi	-10.5462
Z	-10.5463
▁blind	-10.5469
▁बीमा	-10.5472
▁Commissioner	-10.5472
▁crazy	-10.5473
▁पहाड़	-10.5479
tric	-10.5479
▁Ru	-10.548
▁அழ	-10.5481
▁male	-10.5481
aà	-10.5483
▁सामान	-10.5487
▁देव	-10.5488
▁न्यू	-10.549
एफ	-10.5501
▁தங்க	-10.5502
▁ஞ்சம்	-10.5502
எஸ்	-10.5505
▁मिट्टी	-10.5508
gle	-10.5509
ome	-10.5511
क्षेत्र	-10.5512
▁Category	-10.5513
▁लोड	-10.5513
▁லம்	-10.5513
परि	-10.5517
ib	-10.5517
▁पहला	-10.5525
யற்ற	-10.5528
	-10.553
இச	-10.5536
hood	-10.554
rry	-10.554
nder	-10.5541
▁becomes	-10.5544
தள	-10.5544
வற்க	-10.5547
▁पाक	-10.5547
▁anymore	-10.5547
ker	-10.5553
▁தயவசய்த	-10.5554
▁collect	-10.5555
▁चु	-10.5556
My	-10.5556
▁Sal	-10.5559
▁yourselves	-10.5561
lies	-10.5563
▁ட்டன்	-10.5566
▁ஒ	-10.5567
▁cat	-10.5568
▁relations	-10.5568
“	-10.5568
▁माँ	-10.5571
▁happening	-10.5573
ल्ला	-10.5577
▁Account	-10.5578
▁2006	-10.5579
▁session	-10.5582
▁groups	-10.5583
▁sell	-10.5584
▁उपयुक्त	-10.5584
▁sale	-10.5594
ரக்கறன்	-10.5594
चित्र	-10.5594
▁प्रत्यक्ष	-10.5597
ன்ம	-10.56
len	-10.56
▁Pakistan	-10.56
இறக்க	-10.5602
ம்தன்	-10.5605
▁increased	-10.5605
▁Home	-10.5606
▁सांस्कृतिक	-10.5609
▁அதக்க	-10.5611
டத்த	-10.5611
▁सत्र	-10.5612
▁draw	-10.5613
▁cultural	-10.5613
▁glad	-10.5618
▁नये	-10.562
▁तकनीकी	-10.5621
▁सज़ा	-10.5621
▁bra	-10.5622
▁central	-10.5627
▁मिलने	-10.5628
हित	-10.5629
▁obey	-10.5631
டச்ச	-10.5632
இறத	-10.5633
ong	-10.5633
gal	-10.5634
▁belong	-10.5635
▁International	-10.5635
can	-10.5639
ब्	-10.5641
▁पं	-10.5644
▁shot	-10.5646
▁லய	-10.5647
▁गाय	-10.5648
ச்சய	-10.5649
▁அதனல	-10.565
▁def	-10.5651
▁नसीहत	-10.5653
ஒ	-10.5656
▁Copy	-10.5658
வரக	-10.5658
▁lay	-10.566
▁दर्शन	-10.5661
▁दायित्व	-10.5662
த்தர்	-10.5663
▁weak	-10.5664
▁conduct	-10.5664
▁कट	-10.5668
▁manifest	-10.5671
▁destroyed	-10.5672
बन्ध	-10.5673
▁तार	-10.5676
ाते	-10.5676
▁Many	-10.5678
▁35	-10.5679
▁सच	-10.5682
▁gas	-10.5684
▁रद्द	-10.5685
र्व	-10.5687
▁sick	-10.5688
▁bond	-10.5691
▁அவங்கள	-10.5692
▁facilities	-10.5693
▁providing	-10.5693
ement	-10.5696
▁proud	-10.57
நடக்கறத	-10.5701
ika	-10.5702
▁View	-10.5702
uk	-10.5703
▁train	-10.5703
▁remove	-10.5705
▁balance	-10.5706
▁चै	-10.5709
▁नेता	-10.5718
▁ban	-10.5722
▁lock	-10.5723
▁Tamil	-10.5724
மச்ச	-10.5725
▁अह	-10.5725
▁वस्तुओं	-10.5728
▁values	-10.5728
எங்கள	-10.5728
▁rights	-10.5728
▁responsibility	-10.5728
▁हालाँकि	-10.5728
வரல	-10.5728
▁waste	-10.573
கண்டபடக்க	-10.5731
bil	-10.5735
▁unbelievers	-10.5737
▁auto	-10.5738
▁भली	-10.5739
अल्लाह	-10.5739
▁range	-10.574
स्त्र	-10.5742
▁2005	-10.5744
▁Bel	-10.5745
बो	-10.5746
ர்த்த	-10.5747
▁suit	-10.5749
▁improve	-10.5755
जात	-10.5756
pha	-10.5757
▁master	-10.5763
▁ழந்த	-10.5765
▁advance	-10.5767
▁स्वा	-10.5768
▁इनके	-10.5769
உண்மய	-10.577
▁जोर	-10.5771
लय	-10.5771
▁रुपये	-10.5772
▁रोजगार	-10.5772
▁दोस्त	-10.5777
டங்க	-10.5778
पूर्व	-10.5779
▁जिसको	-10.5779
▁fault	-10.5782
ब्ब	-10.5783
▁பயர்	-10.5784
▁March	-10.5786
▁टो	-10.5787
வரத	-10.5788
▁fell	-10.5788
▁dark	-10.5792
col	-10.5792
▁2007	-10.5792
▁उपबंध	-10.5794
நடக்கத	-10.5794
▁वैश्विक	-10.58
And	-10.58
▁ஒவ்வர	-10.5804
¤®	-10.5809
▁खाद्य	-10.5809
▁देखें	-10.581
▁mentioned	-10.5812
▁पात्र	-10.5812
▁अग्र	-10.5814
▁चलते	-10.5816
▁journey	-10.5818
நீண்ட	-10.582
स्टर	-10.582
ef	-10.5823
्ट	-10.5823
▁तरफ़	-10.5824
▁block	-10.5824
▁shown	-10.5825
वां	-10.5828
உறவ	-10.583
ड्र	-10.583
▁guard	-10.5831
▁श्रेणी	-10.5832
ties	-10.5833
▁opinion	-10.5836
தள்ள	-10.5838
io	-10.5838
இடத்த	-10.584
▁Ab	-10.584
▁क्षेत्रीय	-10.5846
▁ஏத	-10.5849
பரவயல்ல	-10.5851
55	-10.5851
try	-10.5854
old	-10.5856
▁मुस्लिम	-10.5862
▁ப்பட	-10.587
▁व्यवसाय	-10.5872
34	-10.5873
▁option	-10.5874
▁लेता	-10.5879
ड्ड	-10.588
▁उत्तम	-10.5881
மனதன்	-10.5882
cious	-10.5885
▁seed	-10.5888
ர்ஸ்	-10.5888
प्प	-10.5889
bal	-10.5891
ல்கள்	-10.5893
वृत्ति	-10.5894
▁प्रसिद्ध	-10.5894
ease	-10.5896
▁exist	-10.5897
▁सलाह	-10.5898
▁pray	-10.5901
▁Kan	-10.5901
▁सुख	-10.5902
▁product	-10.5902
ஆற	-10.5902
▁principle	-10.5903
▁famous	-10.5903
▁model	-10.5906
ज़र	-10.5907
हरगिज़	-10.5908
▁बीज	-10.5909
▁anti	-10.5911
▁reflect	-10.5912
मल	-10.5913
ஆண்	-10.5915
▁infrastructure	-10.5921
▁प्रशासन	-10.5924
எங்கள்	-10.5925
▁अनुवाद	-10.5926
▁cold	-10.593
▁speed	-10.5931
உள்ளன	-10.5931
चित	-10.5931
▁सिस्टम	-10.5931
▁factor	-10.5934
ulation	-10.5935
वाई	-10.5936
க்கள	-10.5941
▁gift	-10.5944
▁medical	-10.5945
gro	-10.5946
▁उतर	-10.5946
▁default	-10.5948
▁बनाई	-10.595
िटी	-10.5954
▁maintain	-10.5956
நட்	-10.5959
▁சய்	-10.596
▁bill	-10.596
▁song	-10.5961
▁avoid	-10.5962
▁दर्ज	-10.5966
டயத	-10.5967
▁understanding	-10.5973
▁skin	-10.5974
▁secure	-10.5977
▁गांव	-10.5977
▁Mm	-10.5979
▁दोष	-10.598
ंप	-10.5981
▁महिलाओं	-10.5981
▁வக	-10.5982
▁placed	-10.5988
▁huh	-10.599
▁throw	-10.5993
▁fixed	-10.5997
▁प्रयासों	-10.6
dge	-10.6001
▁location	-10.6004
▁छि	-10.6006
▁cap	-10.6007
ken	-10.6009
फल	-10.6009
வட்	-10.6011
ஆரம்ப	-10.6012
▁अधिकतम	-10.6018
▁importance	-10.6019
▁बनाकर	-10.6021
▁पेट	-10.6025
ID	-10.6026
பதம்	-10.6026
▁promised	-10.6028
कड़	-10.6029
▁जिनका	-10.6031
▁अधिकतर	-10.6036
▁झगड़	-10.6036
சீ	-10.6048
ஆபத்த	-10.6048
▁खोलें	-10.6048
▁दिख	-10.605
▁shoot	-10.6054
▁हानि	-10.6055
mate	-10.6056
▁blow	-10.6056
▁அதட	-10.6057
▁नियुक्त	-10.606
iz	-10.6061
▁animals	-10.6069
பக்	-10.6072
▁evening	-10.6073
uff	-10.6074
▁ro	-10.6076
▁கத்த	-10.6078
uri	-10.6079
ED	-10.6081
▁बिजली	-10.6081
कारों	-10.6081
▁देखो	-10.6083
ix	-10.6084
▁आयोजन	-10.6085
▁व्याख्या	-10.6086
வரந்த	-10.6087
▁दशक	-10.6091
▁बुरी	-10.6094
▁शाह	-10.6095
▁कहानी	-10.6096
▁गुना	-10.6099
▁बद	-10.61
▁अंतरराष्ट्रीय	-10.61
▁मार्गदर्शन	-10.61
mu	-10.6101
zi	-10.6101
▁board	-10.6101
▁performance	-10.6102
▁स्वामी	-10.6104
▁29	-10.6104
▁दिये	-10.6105
▁शीर्ष	-10.6107
ांतर	-10.6107
▁अनुकूल	-10.6109
lock	-10.611
உண்ட	-10.611
न्ड	-10.611
▁calling	-10.6111
▁prop	-10.6112
▁Mad	-10.6113
▁Krishna	-10.6118
▁विस्तृत	-10.6118
▁hero	-10.612
▁appeal	-10.6123
लेख	-10.6135
matic	-10.6135
aka	-10.6137
▁आइ	-10.6138
மள	-10.614
▁சம்	-10.6142
arch	-10.6142
▁communication	-10.6146
▁दिखाया	-10.6148
▁cook	-10.6149
▁programmes	-10.6154
▁wise	-10.6154
▁password	-10.6156
▁मोड	-10.6157
▁happens	-10.6159
lation	-10.6161
part	-10.6163
வீட்டக்க	-10.6168
रिक	-10.6169
▁spiritual	-10.617
எம்	-10.6171
▁டயம்	-10.6174
▁கட்	-10.6175
சய்கற	-10.6177
abad	-10.6177
ban	-10.6177
▁संस्करण	-10.6179
▁hide	-10.6183
NE	-10.6187
▁organization	-10.6193
ीम	-10.6194
▁Start	-10.6198
▁पशु	-10.6199
▁बेच	-10.6199
▁समाचार	-10.6203
களம்ப	-10.621
▁flo	-10.6211
▁learning	-10.6211
▁stories	-10.6211
फो	-10.6218
▁स्वरूप	-10.6222
▁पंजाब	-10.6225
▁विजय	-10.6226
ुन	-10.6227
▁basic	-10.6234
▁degree	-10.6236
▁सूर्य	-10.6236
Do	-10.6238
▁स्था	-10.6238
ME	-10.6239
ole	-10.6241
▁praise	-10.6244
▁आर्	-10.6245
▁करनेवाला	-10.6245
சம்ப	-10.6246
▁Men	-10.6248
▁ideas	-10.6249
▁बख्श	-10.6249
ौल	-10.625
▁seeing	-10.6251
▁यूरोप	-10.6251
izing	-10.6254
ல்ஒர	-10.6256
▁destroy	-10.6256
▁Free	-10.626
▁collection	-10.6262
▁मिले	-10.6263
▁मिशन	-10.6264
▁आस	-10.6267
கலம்	-10.6267
▁connect	-10.6268
லீ	-10.6269
பதவ	-10.627
▁गुरु	-10.627
▁bag	-10.6272
▁tri	-10.6272
வடவ	-10.6273
cket	-10.6279
▁pure	-10.628
▁कथा	-10.6285
02	-10.6286
▁Hereafter	-10.6287
▁खुश	-10.6294
▁गवाह	-10.6299
▁ग्राम	-10.6299
இன்	-10.63
▁Group	-10.63
PA	-10.6303
▁expression	-10.631
▁बावजूद	-10.6315
▁எவ்வளவ	-10.6316
▁election	-10.6319
▁நள	-10.6321
▁$	-10.6323
65	-10.6323
▁निर	-10.6324
▁मॉ	-10.6326
▁निरंतर	-10.6329
▁milk	-10.6329
ச்சட்ட	-10.6334
▁media	-10.6334
▁north	-10.6335
▁मौसम	-10.6344
fu	-10.6346
▁पार्टी	-10.6348
▁இதவ	-10.6352
▁pleasure	-10.6357
▁इतनी	-10.6357
▁विशेषता	-10.6359
▁boys	-10.6361
▁prescribed	-10.6367
200	-10.6368
car	-10.6369
▁traditional	-10.6372
▁அவரக்க	-10.6372
▁विनिर्दिष्ट	-10.6376
ல்ச	-10.6382
िव	-10.6386
र्इ	-10.6388
▁संचार	-10.639
▁வீட்ட	-10.639
▁plus	-10.6391
கத்தர	-10.6391
cl	-10.6395
▁समक्ष	-10.6398
▁Tu	-10.6399
▁swear	-10.64
கரத்த	-10.6401
▁प्रयुक्त	-10.6404
உட்கர	-10.6404
ov	-10.6409
▁दीवार	-10.6411
राव	-10.6411
▁क़यामत	-10.6415
டமரந்த	-10.6417
23	-10.6418
▁Wow	-10.6419
वालों	-10.643
▁घु	-10.6431
▁पर्वत	-10.6432
▁servants	-10.6434
▁played	-10.6434
அதக	-10.6436
▁Ve	-10.6438
ric	-10.6439
▁powers	-10.6441
ेंट	-10.6442
¥	-10.6443
▁परस्पर	-10.6448
மறக்க	-10.6449
▁addition	-10.6451
▁रोज़ी	-10.6453
▁feature	-10.6453
▁பல்	-10.6453
▁rivers	-10.6454
भारत	-10.6455
▁उपचार	-10.6455
ific	-10.646
avi	-10.6464
▁पहल	-10.6465
▁existence	-10.6468
uring	-10.647
ological	-10.647
▁फैल	-10.6471
SA	-10.6474
▁कब	-10.6475
▁Mal	-10.6475
ंदा	-10.6476
▁உலக	-10.6476
▁कठोर	-10.6476
▁हालांकि	-10.6476
▁गुजरात	-10.6477
22	-10.6478
▁स्पष्टीकरण	-10.6479
कन	-10.648
ஒப்ப	-10.6481
▁मेहरबान	-10.6481
▁mission	-10.6482
pen	-10.6485
▁Never	-10.6487
கன்றன	-10.6488
▁arm	-10.6491
▁ग्राहक	-10.6496
▁presence	-10.6496
▁thereof	-10.6499
kh	-10.6505
▁विद्युत	-10.6505
யல்ல	-10.651
▁विमान	-10.6511
வீர	-10.6511
▁earn	-10.6512
कस	-10.6513
உறத	-10.6513
▁இப்பட	-10.6514
▁treat	-10.6515
▁sex	-10.6519
நனத்த	-10.652
நறய	-10.6521
▁सरदार	-10.6523
▁खाली	-10.6528
vation	-10.653
உண்மயல்	-10.6533
tail	-10.6534
▁जाएं	-10.6535
▁weeks	-10.6538
▁Failed	-10.6539
▁sad	-10.654
▁गुज़र	-10.654
▁require	-10.6541
▁added	-10.6545
03	-10.6546
त्ता	-10.6548
mark	-10.6554
oth	-10.6554
▁छिपा	-10.6555
அடத்த	-10.6555
▁punish	-10.6555
▁laugh	-10.6557
▁activity	-10.6559
▁languages	-10.6559
ல்இர	-10.6559
पत्ति	-10.6563
க்கப்ப	-10.6564
▁मुह	-10.6564
▁पैग़म्बर	-10.6566
▁proper	-10.6569
दू	-10.6573
▁सामना	-10.6574
▁வணக்கம்	-10.6577
ीकृत	-10.6578
்ட	-10.6578
▁निभा	-10.6579
▁मशीन	-10.6579
iti	-10.658
▁advice	-10.6582
▁generation	-10.6584
▁citizens	-10.6584
अपनी	-10.6585
▁numbers	-10.6586
▁வச	-10.6587
्थ	-10.6588
உங்களடம்	-10.6589
▁Call	-10.6591
▁गोल	-10.6593
▁Research	-10.6597
▁dispute	-10.6597
▁पीठ	-10.66
▁மத்த	-10.6602
▁promote	-10.6602
▁attempt	-10.6602
विक	-10.6602
▁Check	-10.6605
▁fill	-10.6607
ன்றல்	-10.6608
▁அதஎன்ன	-10.6609
▁cash	-10.6609
धे	-10.6611
▁Europe	-10.6613
▁Sure	-10.6614
▁pu	-10.6615
ிர	-10.6617
लंब	-10.6618
▁निदेशक	-10.6618
▁parties	-10.6622
னல	-10.6623
▁Search	-10.6627
म्म	-10.6628
பரச	-10.6628
▁Shit	-10.6629
▁2008	-10.6629
▁photo	-10.6632
▁hearing	-10.6632
லர்	-10.6633
ाकार	-10.6633
▁सद	-10.6634
▁आस्ति	-10.6635
▁வம்	-10.6636
▁accounts	-10.6637
▁meant	-10.6638
▁सबको	-10.6641
ियर	-10.6645
தகவல்	-10.6649
▁writer	-10.6649
▁enemy	-10.665
▁perhaps	-10.665
▁सूक्ष्म	-10.6655
cho	-10.6657
▁अवि	-10.6658
▁Other	-10.666
ॉल	-10.6661
▁पसंद	-10.6662
80	-10.6662
▁painful	-10.6665
jan	-10.6666
rap	-10.667
▁हिन्दू	-10.667
▁System	-10.667
▁Ali	-10.667
▁release	-10.6671
▁अनुमान	-10.6673
AD	-10.6675
ஒத்த	-10.6675
oh	-10.6675
Cause	-10.6677
▁दौर	-10.6678
▁gold	-10.6678
ரக்கலம்	-10.668
▁Evolution	-10.669
▁आसान	-10.669
▁सरकश	-10.669
▁வக்க	-10.6691
cra	-10.6691
दाता	-10.6697
▁forever	-10.6698
▁तिथि	-10.6699
▁ப்	-10.67
▁पुत्र	-10.6702
▁plain	-10.6703
▁labour	-10.6704
டவன்	-10.6705
MS	-10.6707
fici	-10.6715
சற்ற	-10.6716
▁brain	-10.6718
▁Mumbai	-10.6719
▁street	-10.6719
▁यंत्र	-10.672
▁weight	-10.6721
▁Gujarat	-10.6729
▁horse	-10.6729
pu	-10.6732
▁Red	-10.6733
▁वेतन	-10.6735
▁Hold	-10.6737
▁अरब	-10.674
▁existing	-10.6742
ஒள	-10.6743
▁colour	-10.6744
▁trial	-10.6747
▁மன்ற	-10.675
▁Inter	-10.6752
▁लेख	-10.6756
▁वेब	-10.6757
▁ग्रहण	-10.6758
▁கற்ற	-10.6759
▁டர	-10.6762
▁According	-10.6763
▁exceed	-10.6763
▁चलता	-10.6764
▁गतिविधियों	-10.6769
▁spot	-10.6771
ப்பர்த்த	-10.6774
சல்லங்கள்	-10.6775
▁தல்	-10.6776
▁विवाद	-10.6777
வஷயத்த	-10.6783
वृ	-10.6783
பரம்	-10.6785
▁officer	-10.6788
▁struggle	-10.6788
▁அததன்	-10.6789
▁proof	-10.6791
கவலப்பட	-10.6791
பயற்ச	-10.6793
▁கவல	-10.6794
▁asset	-10.6794
▁thanks	-10.6794
▁involved	-10.68
लु	-10.6801
▁नियमों	-10.6801
▁concern	-10.6801
▁beat	-10.6804
▁क्लिक	-10.6806
▁बनाएँ	-10.6808
▁गुप्त	-10.6809
▁पदार्थ	-10.6813
▁नामक	-10.6814
▁वातावरण	-10.6818
ரண்ட	-10.682
तया	-10.6821
rid	-10.6821
▁wishes	-10.6823
¤¤	-10.6823
EC	-10.6824
மடயம	-10.6824
▁novel	-10.6828
பழய	-10.683
ட்டய	-10.6832
▁फूल	-10.6837
▁महसूस	-10.6838
▁organisation	-10.6838
▁हाथों	-10.684
▁माता	-10.684
▁sitting	-10.684
▁पश्चिमी	-10.6842
भार	-10.6843
▁fully	-10.6844
AC	-10.6845
▁एफ	-10.6846
▁named	-10.6848
▁powerful	-10.6848
45	-10.685
▁எப்பதம்	-10.6851
ाब	-10.6854
▁தந்த	-10.6855
இற	-10.6855
IL	-10.6857
▁unjust	-10.6857
ांक	-10.6862
▁कटौती	-10.6862
▁hang	-10.6864
▁तल	-10.6868
உணர்வ	-10.6873
▁नियमित	-10.6875
▁raise	-10.6877
▁कर्मचारियों	-10.6877
▁सुंदर	-10.6878
lum	-10.6884
यु	-10.6889
59	-10.689
▁establish	-10.6891
▁परीक्षण	-10.6892
▁स्वागत	-10.6894
▁CO	-10.6894
▁agree	-10.6895
எல்லர	-10.6896
▁helped	-10.6897
▁employment	-10.6903
बाद	-10.6904
ctor	-10.6906
அர்த்தம்	-10.6908
▁अभियान	-10.6908
▁தம்	-10.691
Re	-10.6911
▁சகதர	-10.6913
▁मिलकर	-10.6915
▁Yet	-10.6915
▁covered	-10.6916
▁successful	-10.6919
▁दर्शा	-10.692
ग्रस्त	-10.6921
▁procedure	-10.6922
▁मू	-10.6925
▁south	-10.6926
scribe	-10.6928
▁Was	-10.6933
வீட்டற்க	-10.6936
▁भला	-10.6936
▁संपूर्ण	-10.6937
▁प्राप्ति	-10.6937
▁extend	-10.6938
शक्ति	-10.6945
▁साम	-10.6946
▁झुठलाया	-10.6946
▁format	-10.6958
▁army	-10.6958
▁wood	-10.6959
dr	-10.6959
06	-10.696
ैन	-10.6962
rg	-10.6962
▁workers	-10.6966
▁Mark	-10.697
▁करनेवाले	-10.6972
▁gods	-10.6973
▁escape	-10.6973
▁200	-10.6977
illa	-10.6979
வலய	-10.698
வீட்டல்	-10.6983
▁Something	-10.6988
▁reference	-10.6989
ஆண்ட	-10.6991
▁बोझ	-10.6994
▁opened	-10.6996
பயர	-10.6996
▁कार्ड	-10.7
வஷயங்கள	-10.7002
rating	-10.7003
▁खड़ा	-10.7003
▁chief	-10.7003
ம்வர	-10.7004
्ज़	-10.7004
▁completely	-10.7004
▁अवैध	-10.7008
▁ज़रुर	-10.7008
रन	-10.7011
▁directly	-10.7013
▁भेजे	-10.7018
ீட்ட	-10.7019
▁apart	-10.702
▁Punjab	-10.7023
▁agricultural	-10.7023
▁youth	-10.7024
▁handle	-10.7026
▁कल्याण	-10.7028
वासी	-10.7032
lap	-10.7032
ங்க்	-10.7032
▁सिद्धांत	-10.7033
▁யரம்	-10.7036
சயல்	-10.7036
▁எனக்கக	-10.7038
ज्ञा	-10.7045
▁काव्य	-10.7052
04	-10.7056
▁Mother	-10.7057
▁सकेगा	-10.7058
▁damage	-10.7059
▁#	-10.706
झा	-10.7062
▁Quran	-10.7062
▁फिल्म	-10.7064
▁सड़क	-10.7064
lia	-10.7066
கப்பட	-10.7067
▁शुभकामनाएं	-10.7069
ular	-10.7069
DA	-10.7069
▁units	-10.707
usion	-10.7073
▁holding	-10.7077
▁reading	-10.7077
▁நன்என்ன	-10.708
ob	-10.7081
ஆம	-10.7082
▁घट	-10.7083
oid	-10.7085
▁dig	-10.7086
सम	-10.7087
21	-10.7088
▁Roy	-10.7088
▁सहेजें	-10.7089
▁encourage	-10.7089
▁ideal	-10.709
▁2017	-10.7091
▁पैर	-10.7092
oon	-10.7095
▁lived	-10.7099
▁Folder	-10.71
पि	-10.7102
ஃப்ர	-10.7104
▁हिसाब	-10.7105
oe	-10.7107
▁मल	-10.7107
सार	-10.7115
न्स	-10.7119
▁hill	-10.7119
▁shop	-10.7119
िनी	-10.7121
கறள்	-10.7122
எல்	-10.7123
▁इबादत	-10.7125
▁companies	-10.713
हो	-10.713
▁possess	-10.7132
▁fruit	-10.7135
அமதய	-10.7135
37	-10.7135
▁प्रावधान	-10.7135
▁transport	-10.7136
tel	-10.7138
▁recommend	-10.714
சல்வத	-10.715
▁उदार	-10.7151
▁समस्याओं	-10.7153
▁நன்றக	-10.7154
▁आवास	-10.7155
▁धु	-10.7159
▁finally	-10.716
▁Khan	-10.7162
நக்க	-10.7163
▁symbol	-10.7166
मार	-10.7173
▁Therefore	-10.7176
▁battle	-10.7177
operative	-10.7177
▁பழ	-10.7177
मित	-10.7178
▁connected	-10.7179
्यो	-10.7182
▁पस	-10.7184
▁tea	-10.7185
▁Office	-10.7186
एँगे	-10.7186
▁Kashmir	-10.7187
▁exercise	-10.7187
▁भरोसा	-10.7187
▁पाकिस्तान	-10.7187
▁Bye	-10.7189
▁सहेज	-10.7189
reg	-10.7189
▁ख़ा	-10.719
▁इन्हें	-10.7192
▁वायदा	-10.7192
eration	-10.7194
அடய	-10.7195
24	-10.7197
-19	-10.7197
▁भौतिक	-10.7197
▁அற	-10.7198
▁गणराज्य	-10.7202
▁டவ	-10.7203
▁decide	-10.7205
▁टन	-10.7212
▁forces	-10.7213
▁तय	-10.7216
க்கநன்ற	-10.7217
▁अद्यतन	-10.7218
▁अफ्रीका	-10.7218
▁जीवित	-10.7222
▁bro	-10.7223
▁पलट	-10.7225
लेट	-10.7228
வந்தன்	-10.723
cer	-10.7231
▁सप्ताह	-10.7233
ृत	-10.7233
▁त्रि	-10.7236
tes	-10.7237
ele	-10.724
க்ஸ	-10.724
▁कार्रवाई	-10.7243
▁जनवरी	-10.7243
▁poetry	-10.7246
▁शख़्श	-10.7249
கஞ்ச	-10.725
▁associate	-10.725
ம்கட	-10.7252
लर	-10.7254
▁अक्सर	-10.7259
▁कल्पना	-10.7259
▁स्त्री	-10.726
▁दावा	-10.726
▁Com	-10.7261
▁வர்	-10.7261
▁கறத	-10.7262
▁மக்கள்	-10.7265
CA	-10.7269
▁supply	-10.7269
▁कितने	-10.727
HA	-10.7271
्वे	-10.7273
▁2001	-10.7276
▁मिलती	-10.7277
dri	-10.7278
▁रहें	-10.7278
▁जिनकी	-10.7278
▁दि	-10.7279
▁minister	-10.728
▁கய	-10.7281
ஆச	-10.7282
நகர	-10.7283
க்கவம்	-10.7284
▁Ban	-10.7289
▁joint	-10.7289
▁स्वच्छ	-10.7292
ily	-10.7292
▁severe	-10.7293
room	-10.7296
▁ON	-10.7297
▁இல்லய	-10.7299
वेद	-10.73
▁Kha	-10.7302
▁ள்ள	-10.7305
▁அன்ப	-10.7309
▁leader	-10.7311
▁item	-10.7311
▁Science	-10.7311
voc	-10.7311
ज्ज	-10.7312
dev	-10.7314
▁generally	-10.7315
மகன	-10.7317
▁मुसलमानों	-10.7319
▁प्रसन्नता	-10.7321
▁चलो	-10.7322
▁लिखने	-10.7323
▁plants	-10.7324
▁मानसिक	-10.7328
▁अंड	-10.7331
क्टर	-10.7331
तुल	-10.7333
▁regarding	-10.7336
▁एच	-10.7337
சந்தக்க	-10.734
ரத்த	-10.734
▁तत्व	-10.7342
▁Create	-10.7343
▁Reg	-10.7344
▁calls	-10.7346
▁मात्र	-10.7346
▁percent	-10.735
भर	-10.7351
▁हद	-10.7351
रेट	-10.7353
▁परियोजनाओं	-10.7353
▁பண	-10.7355
இழந்த	-10.7355
▁continued	-10.7358
ox	-10.7359
▁றந்த	-10.7362
உலக	-10.7363
▁मोह	-10.7368
▁channel	-10.7368
▁दंड	-10.7369
▁shut	-10.7372
▁रोज़	-10.7374
உரவக்க	-10.7375
रानी	-10.7377
▁produced	-10.7379
▁solution	-10.7379
▁1961-201	-10.738
மதல	-10.738
▁கடக்க	-10.7381
▁उपभोक्ता	-10.7384
▁तौबा	-10.7384
சங்க	-10.7385
▁Arab	-10.7386
பரத	-10.7387
▁steps	-10.739
▁अंश	-10.7391
▁90	-10.7397
▁significant	-10.74
SH	-10.7403
▁பரச்சன	-10.7407
▁former	-10.7409
▁sat	-10.7413
▁मतलब	-10.7416
▁वितरण	-10.7416
அப்படய	-10.7416
▁बदलें	-10.7418
▁खेती	-10.7419
▁शून्य	-10.7421
▁Power	-10.7421
▁software	-10.7421
எதர	-10.7421
▁egg	-10.7422
▁खुशी	-10.7423
▁बाहरी	-10.7427
ches	-10.743
▁என்னட	-10.7431
▁heavy	-10.7432
▁एवोल्यूशन	-10.7437
▁ज़ुल्म	-10.7437
▁तेज	-10.7441
प्रभु	-10.7442
▁granted	-10.7446
▁formed	-10.7447
▁अंतर्राष्ट्रीय	-10.7448
▁Guru	-10.7448
din	-10.7448
▁laid	-10.7448
▁मान्यता	-10.7453
▁சக	-10.7454
▁sal	-10.7457
▁परंपरा	-10.7457
▁டர்	-10.7457
▁माबूद	-10.7458
சக்த	-10.7459
Ma	-10.7461
▁proceed	-10.7463
▁confirm	-10.7464
▁systems	-10.7464
work	-10.7464
▁खाने	-10.7464
fully	-10.7465
अर	-10.7465
▁लगाने	-10.7469
MA	-10.7469
▁insect	-10.7471
கஇரந்த	-10.7471
ject	-10.7474
▁Supreme	-10.7474
ati	-10.7481
அண்ண	-10.7482
ग्राफ	-10.7483
▁खाना	-10.7483
▁gate	-10.7483
vision	-10.7485
▁बजा	-10.7486
ोप	-10.7486
கதல	-10.7489
▁distance	-10.749
▁bone	-10.749
aj	-10.7491
NAME	-10.7493
▁பன்னர்	-10.7494
▁opportunities	-10.7495
htm	-10.7496
▁जुड़े	-10.7496
tical	-10.7499
▁யன்	-10.7504
▁யல	-10.7505
▁सवाल	-10.7506
▁Col	-10.7506
▁தயவச	-10.7509
▁favor	-10.751
▁என்னவ	-10.7514
▁घरों	-10.7516
▁पूर्ववर्ष	-10.7517
▁Bra	-10.7519
▁spent	-10.7519
▁surprise	-10.7522
▁grace	-10.7522
▁இட	-10.7522
▁concerning	-10.7523
▁हिंदू	-10.7527
▁Resurrection	-10.7527
▁जैव	-10.753
ipp	-10.7531
▁relative	-10.7532
▁அன	-10.7536
दुनिया	-10.7536
bul	-10.7537
▁देकर	-10.7537
▁forgiveness	-10.754
Allah	-10.7541
▁particularly	-10.7542
▁लेन	-10.7543
▁खूब	-10.7543
▁ruin	-10.7544
nar	-10.7545
▁effort	-10.7548
▁शुद्ध	-10.7549
▁owner	-10.7549
▁Shah	-10.7555
▁verses	-10.7555
▁कार्यक्रमों	-10.7557
▁Got	-10.7559
ப்ளீஸ்	-10.7559
now	-10.7561
▁प्रतिभा	-10.7562
▁2002	-10.7566
box	-10.7567
ष्ण	-10.7568
▁More	-10.7569
▁Air	-10.757
▁जून	-10.757
▁बढ़कर	-10.7572
▁prove	-10.7577
mber	-10.7578
विज्ञान	-10.7581
▁presented	-10.7581
ச்சன்	-10.7582
▁रेल	-10.7583
▁शाखा	-10.7583
▁शुक्र	-10.7585
▁Everything	-10.7586
rc	-10.7586
िष्ट	-10.7586
▁discover	-10.7587
अलग	-10.759
▁officers	-10.7595
CC	-10.7596
▁ஆனல்அத	-10.7599
▁Chi	-10.7601
▁occur	-10.7601
▁dress	-10.7606
▁धीरे	-10.7606
▁everybody	-10.7607
release	-10.7612
▁पुराने	-10.7613
▁भलाई	-10.7616
▁standard	-10.7622
▁इत्यादि	-10.7623
▁स्थिर	-10.7623
▁बजे	-10.7625
▁banks	-10.7625
▁ख़र्च	-10.7629
▁जायेगा	-10.7631
▁எதவம்	-10.7633
▁படக்க	-10.7633
▁fighting	-10.7633
▁उपन्यास	-10.7635
▁assistance	-10.7635
निर्	-10.7635
▁scientific	-10.7639
▁कारबार	-10.764
▁mountains	-10.7642
வணக்கம்	-10.7643
னக	-10.7643
▁दीन	-10.7645
शु	-10.7647
▁गंगा	-10.7648
▁पर्यटन	-10.765
நீத	-10.7651
▁taught	-10.7652
▁गर्म	-10.7655
▁scared	-10.7659
▁Once	-10.7659
▁ஐ	-10.7661
▁शुरुआत	-10.7661
▁huge	-10.7661
If	-10.7664
▁pattern	-10.7666
ட்டங்க	-10.7667
▁तकनीक	-10.7668
ank	-10.7669
▁கவன	-10.767
nam	-10.7672
▁partner	-10.7672
▁reject	-10.7672
பன்ன	-10.7674
▁associated	-10.7675
▁button	-10.7677
▁families	-10.7677
bol	-10.7677
அனவரம்	-10.768
board	-10.7681
▁நரம்	-10.7683
dom	-10.7683
64	-10.7686
▁min	-10.7689
▁निर्देशिका	-10.769
▁Nor	-10.769
ुआ	-10.7693
▁उत्कृष्ट	-10.7693
▁mention	-10.7696
▁लु	-10.7696
▁சல்வத	-10.7697
▁नेतृत्व	-10.7699
▁மனத	-10.77
▁wear	-10.7701
▁accident	-10.7704
▁truly	-10.7704
▁पेज	-10.7706
▁sold	-10.7706
▁double	-10.771
▁email	-10.7711
mission	-10.7711
▁imagine	-10.7715
over	-10.772
नेवाली	-10.7721
▁ourselves	-10.7726
▁ध्वनि	-10.7726
▁Fund	-10.7727
▁directory	-10.7729
ல்உள்ள	-10.7729
cular	-10.7731
▁Excuse	-10.7731
▁habit	-10.7733
சய்வ	-10.7733
▁शीर्षक	-10.7733
▁என்பத	-10.7734
▁whi	-10.7738
▁calendar	-10.7742
▁मूल्यांकन	-10.7743
▁ख्याल	-10.7743
▁ST	-10.7744
▁गैस	-10.7744
फे	-10.7745
▁उसपर	-10.7746
▁gene	-10.7746
த்தரயம்	-10.7748
loo	-10.775
உடன	-10.7751
some	-10.7752
▁Thou	-10.7754
▁Since	-10.7754
▁अम	-10.7757
கடத	-10.7757
▁आयुक्त	-10.7758
▁हिस्से	-10.7759
lat	-10.7759
▁अप्र	-10.7764
▁empty	-10.7764
presidentofindia	-10.7764
▁cru	-10.7769
▁About	-10.7776
raj	-10.7781
▁हाँ	-10.7782
pal	-10.7784
என்னல்	-10.7785
▁AND	-10.7787
DE	-10.7788
▁decade	-10.779
▁पू	-10.7791
ஏற்ற	-10.7792
जिस	-10.7795
▁Truth	-10.7797
▁कमांड	-10.7797
▁आये	-10.7798
वाल	-10.7799
சத்தம்	-10.78
▁எதர்	-10.7802
▁shows	-10.7803
▁finger	-10.7804
அழகன	-10.7805
▁मानो	-10.7805
▁गर्भ	-10.7806
▁Ben	-10.7807
▁Head	-10.7811
▁प्रतिनिधि	-10.7813
▁Member	-10.7815
हु	-10.7816
्ता	-10.7818
▁origin	-10.7819
क्ल	-10.7823
▁जानी	-10.7829
▁protection	-10.7831
▁कराने	-10.7833
▁increasing	-10.7835
▁Though	-10.7836
▁script	-10.7837
▁deliver	-10.7839
ஜய	-10.784
இல்லமல்	-10.7843
54	-10.7845
▁अनुसरण	-10.7846
▁प्रार्थना	-10.7846
वाली	-10.7846
நகழ்ச்ச	-10.7849
▁pressure	-10.7853
law	-10.7855
மண்ட	-10.7855
▁கம	-10.7855
▁संस्थाओं	-10.7856
▁बढ	-10.7857
▁season	-10.7859
▁वाद	-10.786
▁push	-10.7861
सूर	-10.7869
▁2012	-10.7873
▁fresh	-10.7874
▁நன்என்	-10.7876
▁प्रयोजन	-10.7877
▁enable	-10.7877
▁आपूर्ति	-10.7879
under	-10.7879
▁contains	-10.788
▁CD	-10.7882
▁द्वार	-10.7883
▁industries	-10.7885
▁ரண்ட	-10.7885
ப்பக்க	-10.7887
கரண	-10.7888
mination	-10.789
▁concept	-10.7891
▁farm	-10.7891
▁Explanation	-10.7896
▁challenge	-10.7896
▁तेरे	-10.7897
गन	-10.7897
▁Sim	-10.7898
அழப்ப	-10.79
▁cho	-10.7901
ica	-10.7906
गि	-10.7906
▁எனத	-10.7909
▁அல	-10.792
▁मिटाएँ	-10.7926
▁जाएंगे	-10.7926
▁पट्टी	-10.7928
ेश्वर	-10.7929
▁stock	-10.7929
ொ	-10.7931
not	-10.7931
மடவ	-10.7933
மசம	-10.7934
யசன	-10.7939
▁स्क्रीन	-10.794
▁कितनी	-10.794
▁quick	-10.7941
நடந்தத	-10.7942
क़यामत	-10.7944
▁खुले	-10.7945
▁growing	-10.795
gl	-10.795
af	-10.7951
▁अत्यधिक	-10.7951
▁Back	-10.7952
▁बातचीत	-10.7957
ஆள்	-10.7958
hop	-10.7963
ட்டம	-10.7967
▁sacrifice	-10.7968
க்கல்	-10.7971
▁शु	-10.7972
யரம்	-10.7973
ஹல	-10.7975
▁Ph	-10.7976
▁पत्नी	-10.7979
▁छु	-10.7981
52	-10.7981
ough	-10.7983
ॉन	-10.7984
▁Remember	-10.7985
▁विद्यार्थियों	-10.7985
▁Send	-10.7985
▁lady	-10.7988
▁sides	-10.7988
▁पंचांग	-10.799
rb	-10.7993
கட்ச	-10.7998
▁Import	-10.8002
ception	-10.8003
யடன்	-10.8003
▁select	-10.8004
▁revelations	-10.8004
▁எனக்கப	-10.8004
▁कोड	-10.8004
▁कौशल	-10.8007
கஇரந்தத	-10.8009
ஃபன்	-10.801
पात	-10.801
▁Wise	-10.801
ग्न	-10.8011
▁cities	-10.8011
▁technical	-10.8013
hold	-10.8013
cro	-10.8013
▁ர்கள்	-10.8014
▁scar	-10.8017
▁க்கய	-10.8018
gam	-10.8019
▁स्वतंत्र	-10.802
▁पढ़ा	-10.8021
▁छूट	-10.8023
▁Wa	-10.8024
CH	-10.8024
ங்களம்	-10.8027
▁स्तंभ	-10.8029
▁इक	-10.803
shed	-10.8031
நனக்கற	-10.8031
▁Has	-10.8035
ibility	-10.8035
வழ்	-10.8037
▁includes	-10.8039
▁होनी	-10.804
தபல	-10.8041
▁Provided	-10.8042
படம்	-10.8042
▁शत्रु	-10.8046
cr	-10.8047
▁catch	-10.8047
OL	-10.8048
▁gather	-10.8049
▁फ्र	-10.8049
▁Part	-10.8049
▁अं	-10.8051
▁நகர	-10.8054
▁leading	-10.8055
▁stick	-10.8058
▁Everyone	-10.8058
▁अज	-10.806
▁OK	-10.8061
esh	-10.8061
हरा	-10.8061
ata	-10.8062
▁knowing	-10.8062
▁warning	-10.8063
▁Wal	-10.8063
▁-[	-10.8063
▁highest	-10.8065
▁बजाय	-10.8067
▁faces	-10.8068
▁festival	-10.8069
▁किस्म	-10.807
▁गृह	-10.8072
AS	-10.8075
▁३	-10.8075
▁करार	-10.8077
aya	-10.8077
▁ऐतिहासिक	-10.808
▁कर्मचारी	-10.808
▁Change	-10.808
क्क	-10.8081
▁लक्षण	-10.8082
▁बनाते	-10.8084
▁த்தர	-10.8084
vas	-10.8085
▁limited	-10.8085
▁January	-10.8086
▁military	-10.8086
▁surface	-10.8086
▁फरमा	-10.809
▁mass	-10.8091
ஃபர்	-10.8092
தீங்க	-10.8097
▁வழ்க்க	-10.8102
▁साइ	-10.8102
▁staff	-10.8103
▁Address	-10.8103
▁00	-10.8104
▁clearly	-10.8104
▁प्रेरित	-10.8108
▁प्रोत्साहन	-10.8108
ீர	-10.811
ंदी	-10.8114
▁लॉग	-10.8114
▁fix	-10.8116
ila	-10.8116
அனமத	-10.8119
▁बुराई	-10.812
▁इकाई	-10.8121
dh	-10.8121
▁relevant	-10.8125
▁violence	-10.8136
▁जमीन	-10.8137
..."	-10.8139
▁Whatever	-10.814
▁screen	-10.8141
ature	-10.8146
▁otherwise	-10.815
क्षेप	-10.8152
▁houses	-10.8154
▁डरते	-10.8156
ump	-10.8159
OS	-10.8162
नर	-10.8166
▁अल्प	-10.8168
▁कक्ष	-10.8168
दूर	-10.8169
▁आनंद	-10.8171
▁PM	-10.8173
ஸல்	-10.8176
▁commit	-10.8179
▁உண்மய	-10.8179
▁परामर्श	-10.8182
▁Law	-10.8183
▁lying	-10.8185
▁வன	-10.8186
▁सृजन	-10.8187
▁denied	-10.8188
வரக்கம்	-10.8189
वश	-10.8189
ஸ்த	-10.819
▁ID	-10.8191
▁अस्तित्व	-10.8193
nish	-10.8194
key	-10.8194
▁construction	-10.8197
▁magic	-10.82
▁animal	-10.8204
பணத்த	-10.8204
▁निशानी	-10.8204
▁length	-10.8205
▁unique	-10.8205
▁Ser	-10.8205
கரணம்	-10.821
▁Image	-10.8211
▁தக்க	-10.8213
▁देखभाल	-10.8216
भाँति	-10.8216
▁expenditure	-10.8222
▁चीज	-10.8222
▁दूध	-10.8223
▁contain	-10.8224
चन्द	-10.8226
▁agriculture	-10.8227
▁weapon	-10.8227
▁useful	-10.8229
47	-10.8232
▁उपयोक्ता	-10.8233
▁joy	-10.8233
▁प्रारूप	-10.8235
▁अंतरण	-10.8237
▁भगवान	-10.8238
▁response	-10.8239
▁ஏனன்றல்	-10.8239
▁transaction	-10.8239
கடக்கம்	-10.8239
▁சய	-10.8239
rah	-10.8241
ese	-10.8245
▁बैंकों	-10.8246
▁फो	-10.8252
▁लाइन	-10.8252
அடக்க	-10.8253
वै	-10.8254
थे	-10.8254
எல்லரம்	-10.8254
▁கடத்த	-10.8254
▁string	-10.8255
▁लाया	-10.8256
▁discussion	-10.8257
▁किसान	-10.826
▁खिलाफ	-10.8262
▁बुनियादी	-10.8262
▁सुबह	-10.8262
▁बदलाव	-10.8265
cept	-10.8266
\\	-10.8268
धर्म	-10.8273
▁supported	-10.8277
▁entered	-10.8279
फ़र	-10.8279
जु	-10.828
▁चारों	-10.8281
▁custom	-10.8281
▁मुझ	-10.8282
▁आयतें	-10.8285
▁complex	-10.8285
TI	-10.8292
▁ऊ	-10.8293
அதகர	-10.8293
rup	-10.8299
▁शुभ	-10.83
▁convey	-10.8302
HO	-10.8305
▁pan	-10.8306
▁broke	-10.8306
▁ஸ்ட	-10.8307
▁benefits	-10.8308
வழங்க	-10.8311
▁customer	-10.8311
▁replace	-10.8311
▁ठिकाना	-10.8313
धिक	-10.8314
▁ज़ालिम	-10.8316
न्ध	-10.8317
▁wild	-10.8319
▁missing	-10.8321
AM	-10.8323
▁अदा	-10.8323
▁अर्	-10.8326
ஒரக	-10.8329
rum	-10.8332
ஒரவர	-10.8332
77	-10.8334
ney	-10.8335
▁types	-10.8335
▁largest	-10.834
▁वादा	-10.8341
gue	-10.8345
▁ख़ास	-10.8345
aging	-10.8346
ரகசய	-10.8346
▁दौड़	-10.8348
கஸ்	-10.8348
▁जड़	-10.8351
¥	-10.8354
▁वाद्य	-10.8354
ப்ள	-10.8355
▁नजर	-10.8357
▁height	-10.8357
▁China	-10.8359
eep	-10.8365
▁Calcutta	-10.8365
▁cloud	-10.8371
▁hey	-10.8373
▁संबंधों	-10.8374
▁विशेषज्ञ	-10.8374
▁दिला	-10.8375
▁boat	-10.8376
▁लोकतंत्र	-10.8378
प्रति	-10.8381
மஇரக்க	-10.8381
▁लोकप्रिय	-10.8383
▁मां	-10.8383
▁प्रचार	-10.8383
அனத்த	-10.8384
▁attain	-10.8384
▁invent	-10.8385
▁Tax	-10.8387
ஏழ	-10.8389
▁मंच	-10.8393
▁revolution	-10.8394
where	-10.8395
▁மய	-10.8395
▁Pharaoh	-10.8396
ically	-10.8396
▁गरीब	-10.8397
For	-10.84
▁movie	-10.84
ப்பதற்க	-10.8403
▁opening	-10.8405
▁portion	-10.8406
▁बिक्री	-10.8407
▁प्रतिक्रिया	-10.8408
▁दिनांक	-10.8409
▁ran	-10.8415
acy	-10.8416
▁ग्रंथ	-10.8416
ைய	-10.8417
▁पौ	-10.8418
ोस	-10.842
▁जंगल	-10.842
▁தப்ப	-10.842
பர்த்தன்	-10.8421
இரந்தல்	-10.8422
▁Abraham	-10.8423
▁இறந்த	-10.8423
▁कृष्ण	-10.8424
▁relation	-10.8425
▁दुआ	-10.8425
யவத	-10.8426
▁stream	-10.8427
▁Christian	-10.843
▁appointment	-10.8432
▁अंतर्	-10.8433
▁சத	-10.8433
AY	-10.8434
▁पुर	-10.8436
▁ईमानदार	-10.8436
66	-10.8437
▁Lok	-10.8439
fold	-10.8439
43	-10.844
▁administration	-10.8441
▁Char	-10.8444
▁sufficient	-10.8446
▁வலய	-10.8447
▁Children	-10.8447
▁villages	-10.8447
▁Jack	-10.845
▁वैध	-10.8453
▁assets	-10.8454
▁committed	-10.8454
fr	-10.8456
▁बेटे	-10.8458
▁Management	-10.8459
உண்மயன	-10.8459
▁कहता	-10.846
endra	-10.846
मंत्र	-10.8461
▁fail	-10.8463
▁Ji	-10.8464
char	-10.8469
▁ப்பத	-10.8469
▁नष्ट	-10.847
▁Put	-10.8471
நழ	-10.8471
▁Also	-10.8473
▁June	-10.8474
▁results	-10.8475
▁floor	-10.8475
▁teacher	-10.8478
ஜர்	-10.8481
ீட்	-10.8485
▁ठहर	-10.8485
▁belief	-10.8488
மகள்	-10.8488
▁करवा	-10.8488
▁title	-10.849
▁Leave	-10.8494
▁भाषण	-10.8495
▁வஷயம்	-10.8495
▁ब्ल	-10.8495
▁प्रकाशन	-10.8497
हू	-10.8498
▁க்கற	-10.8499
க்கறம்	-10.8499
▁Exp	-10.8499
▁75	-10.85
▁fat	-10.85
▁species	-10.85
▁पेड़	-10.8504
லயன்	-10.8506
info	-10.8507
▁मैदान	-10.8508
▁அரம	-10.8509
▁Should	-10.8511
▁appropriate	-10.8511
▁1999	-10.8514
த்தக்கண்ட	-10.8515
வழ்க்க	-10.8516
▁moved	-10.8518
▁burden	-10.8523
▁अर्थात्	-10.8526
var	-10.853
▁आग्रह	-10.8531
▁बिहार	-10.8532
देन	-10.8533
▁documents	-10.8533
▁अर	-10.8534
க்கறய்	-10.8535
▁Hindus	-10.8537
▁rank	-10.8539
சப்ப	-10.8539
மடயவல்ல	-10.854
वर्त	-10.854
▁पूजा	-10.8542
▁मुसलमान	-10.8544
र्श	-10.8545
▁विविध	-10.8546
▁फ़ैसला	-10.8547
வரன்	-10.855
▁बनने	-10.8551
▁असमर्थ	-10.8553
ஜன	-10.8553
▁सौंप	-10.8554
▁டன்	-10.8554
▁सीधा	-10.8558
\	-10.8558
▁twenty	-10.8558
स्म	-10.8558
▁teach	-10.8559
88	-10.8561
▁ring	-10.8562
aught	-10.8564
▁ग़रज़	-10.8565
ீட	-10.8565
ria	-10.8566
▁தவற	-10.8566
mount	-10.8568
அனபவ	-10.8568
zo	-10.857
▁आध्यात्मिक	-10.857
எழந்த	-10.8571
▁समस्त	-10.8571
▁Sun	-10.8571
▁रास्ता	-10.8571
▁Both	-10.8572
▁moral	-10.8573
▁URL	-10.8576
▁Enable	-10.8578
▁எடத்த	-10.8579
▁सेवाएं	-10.8582
▁fellow	-10.8583
கஉள்ளத	-10.8584
▁measures	-10.8586
▁प्राथमिकता	-10.8587
gri	-10.859
▁गुमराही	-10.8591
▁accordance	-10.8595
▁स्थानों	-10.8595
न्ना	-10.8596
▁घो	-10.8596
▁आठ	-10.8598
▁laws	-10.8599
எத்தன	-10.86
▁convert	-10.86
गढ़	-10.8601
▁32	-10.8605
Yes	-10.8605
▁crime	-10.8606
▁consideration	-10.8606
ending	-10.8608
▁wage	-10.8608
▁सीख	-10.8609
ware	-10.8609
कुल	-10.8611
▁London	-10.8612
▁न्यूनतम	-10.8612
▁camp	-10.8617
from	-10.8621
▁इतने	-10.8624
▁strike	-10.863
कृति	-10.8631
▁Ge	-10.8632
▁aren	-10.8632
▁adult	-10.8636
▁लगातार	-10.8636
கடந்த	-10.8639
56	-10.8639
win	-10.864
▁विषयों	-10.8641
▁purchase	-10.8641
▁विद्वान	-10.8641
▁resident	-10.8646
▁இதந	-10.8647
▁cooperation	-10.8647
நன்க	-10.8648
ांग	-10.865
க்கறர்	-10.8651
▁Chandra	-10.8651
▁(4)	-10.8654
▁சட்ட	-10.8657
you	-10.8659
▁Dev	-10.8661
கடவள	-10.8661
▁आं	-10.8663
rie	-10.8667
हरी	-10.867
▁argument	-10.8671
▁पवित्र	-10.8671
▁கடச	-10.8671
कत	-10.8671
எண்	-10.8673
▁विनियम	-10.8673
▁பள்ள	-10.8675
69	-10.8675
▁वर्	-10.8676
MP	-10.8676
ख्वाह	-10.868
▁partners	-10.8681
▁उठाए	-10.8682
▁ज्ञापन	-10.8683
பக்கம்	-10.8684
SC	-10.8685
▁सार	-10.8685
▁पढ़ने	-10.8687
▁bow	-10.8688
▁qua	-10.869
िला	-10.8691
▁சீ	-10.8692
▁दुख	-10.8693
▁स्मृति	-10.8695
▁उम्र	-10.8695
▁500	-10.8696
ool	-10.8697
▁emb	-10.8697
vy	-10.8701
▁ரண	-10.8704
▁flu	-10.8704
▁expected	-10.8705
▁marry	-10.8705
▁नज़र	-10.8708
▁net	-10.8709
▁अक्षम	-10.871
योजित	-10.8714
▁मौत	-10.8715
यल	-10.8716
pan	-10.8719
▁सामर्थ्य	-10.8719
▁sons	-10.8721
▁இதச	-10.8724
தயர்	-10.8725
▁greatest	-10.873
▁रेखा	-10.873
கட்	-10.8731
▁honest	-10.8731
▁wedding	-10.8731
க்கத்த	-10.8735
▁terrible	-10.8737
ढ़ा	-10.8739
▁Bro	-10.8746
pel	-10.8748
▁पुस्तिका	-10.8749
▁Text	-10.8749
▁trees	-10.875
▁ரக	-10.8753
॰	-10.8755
▁आंतरिक	-10.8755
▁sins	-10.8755
▁नील	-10.876
▁Next	-10.8761
▁पड	-10.8762
பலீஸ்	-10.8766
▁learned	-10.8766
▁blame	-10.8768
▁vote	-10.8769
ula	-10.877
லஸ்	-10.8771
▁square	-10.8772
▁mutual	-10.8773
ட்ல	-10.8775
▁அடக்	-10.8778
▁अध	-10.8778
▁Web	-10.8778
▁प्रायः	-10.8779
▁December	-10.8781
▁शिकार	-10.8781
▁मज़ा	-10.8782
▁professional	-10.8785
ஒல	-10.8788
▁வழக்க	-10.8788
▁ப்ர	-10.8792
▁थोड़ा	-10.8797
▁45	-10.8799
▁घरेलू	-10.8803
▁broken	-10.8804
▁दू	-10.8804
ப்பட்டன்	-10.8805
ोत्तर	-10.8806
फ्	-10.8809
▁मामला	-10.881
nie	-10.881
▁भटक	-10.8813
▁தரயத	-10.8813
vid	-10.8814
▁roll	-10.8815
▁नृत्य	-10.8816
num	-10.8816
பறந்த	-10.8816
▁Very	-10.8816
ில்	-10.8818
▁safety	-10.882
हाल	-10.8821
▁उभर	-10.8821
▁यथा	-10.8823
▁कम्प	-10.8823
சல்வ	-10.8823
▁वीर	-10.8823
கஇரக்கறத	-10.8824
▁keeping	-10.8825
▁दूरी	-10.8825
ஆச்ச	-10.8829
कालीन	-10.883
ब्रा	-10.883
▁ईमानदारों	-10.8831
▁teaching	-10.8836
▁शोध	-10.8836
▁Had	-10.8838
▁படத்த	-10.8838
▁manager	-10.8842
▁ख़ुश	-10.8846
ஹ்	-10.8846
udi	-10.8846
க்கறய	-10.885
ீன்	-10.8851
▁Op	-10.8851
▁मुंबई	-10.8852
▁उड़ा	-10.8853
▁loved	-10.8855
▁Islamic	-10.8858
▁Ran	-10.8858
▁appreciate	-10.8858
▁IT	-10.8862
▁तभी	-10.8863
▁apostle	-10.8864
▁महत्त्वपूर्ण	-10.8865
▁achieve	-10.8866
सभा	-10.8871
▁luck	-10.8876
हालॉकि	-10.8876
▁लै	-10.8877
▁items	-10.8877
எதயம்	-10.8877
▁innovation	-10.8882
भव	-10.8885
▁Nath	-10.8885
▁ற்க	-10.8885
▁प्रवाह	-10.8886
र्ष	-10.8888
ட்டர	-10.8891
நட்ட	-10.8894
▁shouldn	-10.8894
पै	-10.8895
▁तरीका	-10.8901
▁वृक्ष	-10.8901
बोध	-10.8901
▁पहन	-10.8904
▁प्रतिभूति	-10.8905
ல்இரக்க	-10.8905
▁leaves	-10.8908
िक्स	-10.8911
தரஞ்ச	-10.8912
▁करीब	-10.8912
▁तीव्र	-10.8913
▁dry	-10.8915
ATION	-10.8919
▁साम्राज्य	-10.8919
▁देवी	-10.8921
▁संसाधनों	-10.8921
உடல்	-10.8922
▁agent	-10.8923
▁recent	-10.8924
ou	-10.8925
▁Window	-10.8925
▁निर्वाचन	-10.8925
தயர	-10.8926
▁spoke	-10.8926
நடக்கம்	-10.8927
▁रास्ते	-10.8934
▁நச்சயம	-10.8935
quir	-10.8935
धन	-10.8937
▁औसत	-10.8938
▁River	-10.8938
இழக்க	-10.8938
▁Miss	-10.8941
▁Christ	-10.8949
ंगल	-10.8949
▁Google	-10.895
ல்என்ன	-10.8951
▁extent	-10.8952
▁deserve	-10.8956
▁succeed	-10.8956
हल	-10.8956
ிற	-10.8956
▁completed	-10.8956
hum	-10.8956
னட	-10.8957
▁पॉ	-10.8957
▁ची	-10.8958
▁प्रबंध	-10.8961
▁கலம்	-10.8962
▁contribute	-10.8962
▁honor	-10.8962
▁included	-10.8963
▁रौशन	-10.8968
▁beauty	-10.8968
▁worse	-10.8968
▁பன்ன	-10.8971
ech	-10.8972
▁இரக்கம்	-10.8973
ச்சக்க	-10.8974
▁lines	-10.8976
▁review	-10.8978
▁उद्घाटन	-10.8981
பண்ற	-10.8982
▁ட்ர	-10.8982
▁दस्तावेज़	-10.8983
99	-10.8983
▁தட்ட	-10.8984
but	-10.8986
▁जल्द	-10.8986
▁बोले	-10.8988
जल	-10.8988
க்கடய	-10.8989
▁प्रभार	-10.8993
▁दवा	-10.8993
▁विधेयक	-10.8999
▁quiet	-10.8999
ini	-10.9001
pec	-10.9001
ஒன்றக	-10.9002
▁mighty	-10.9003
▁डरा	-10.9004
▁वेद	-10.9004
aving	-10.9005
टिंग	-10.9005
▁Post	-10.9005
▁Bombay	-10.9005
▁Delete	-10.9006
dor	-10.9008
▁पूछा	-10.9009
▁आओ	-10.9009
ट्स	-10.901
▁extra	-10.9012
▁नागरिकों	-10.9012
▁engaged	-10.9013
▁एकत्र	-10.9016
அவங்கள	-10.9017
▁democracy	-10.9018
▁domestic	-10.9018
▁ऑनलाइन	-10.9018
TER	-10.9018
ப்பர்க்க	-10.9019
शाला	-10.9019
தய்	-10.9022
க்கப்பட	-10.9023
▁मैने	-10.9023
▁भागीदारी	-10.9024
▁solve	-10.9026
ஒன்ன	-10.9028
▁micro	-10.903
▁वचन	-10.903
▁ரத்த	-10.9031
ஒரநல்ல	-10.9038
▁त्याग	-10.9042
रोध	-10.9043
▁su	-10.9045
night	-10.9045
▁Gi	-10.9045
▁Para	-10.9049
▁भार	-10.9051
▁European	-10.9053
▁पारित	-10.9053
▁भाषाओं	-10.9054
▁रुपए	-10.9055
▁Park	-10.9058
▁Tre	-10.9058
கணக்க	-10.906
▁அனத்த	-10.9061
प्ट	-10.9061
हाँ	-10.9061
வட்டர்	-10.9062
62	-10.9068
களயம்	-10.9068
▁घेर	-10.9072
சதன	-10.9073
ट्ठ	-10.9074
சல்கற	-10.9075
▁Mode	-10.9077
pat	-10.9078
75	-10.9078
▁advantage	-10.908
▁easily	-10.908
▁संचालन	-10.908
▁जोखिम	-10.908
▁परहेज़गार	-10.908
கத்தல்	-10.9081
▁commercial	-10.9086
▁दृढ़	-10.9086
▁छात्र	-10.9086
வளக்க	-10.9087
▁(1	-10.9087
▁सहकारी	-10.9088
▁भागों	-10.9089
▁employees	-10.9092
माल	-10.9092
▁located	-10.9092
இயக்க	-10.9098
▁खींच	-10.9098
▁Cro	-10.9099
லன்ன	-10.9103
▁றப்ப	-10.9103
ेंस	-10.9103
▁storage	-10.9105
▁average	-10.9105
NG	-10.9106
▁दबा	-10.9108
load	-10.9109
धारक	-10.911
▁अभिप्रेत	-10.9111
மகழ்ச்ச	-10.9114
▁somebody	-10.9117
▁minus	-10.912
▁हराम	-10.912
▁तमाम	-10.9123
▁मीडिया	-10.9124
யளர்	-10.9124
ப்பல்	-10.9126
▁implementation	-10.9126
ஏற்கனவ	-10.9127
பரவ	-10.9128
தனய	-10.9132
இரந்தலம்	-10.9135
▁chastisement	-10.9136
▁परिस्थितियों	-10.9137
▁गवाही	-10.9138
▁असं	-10.9139
▁ख़ूब	-10.9142
▁mess	-10.9144
▁update	-10.9145
ீன	-10.9145
அச	-10.9145
▁विष	-10.9147
▁ஜன்	-10.9151
▁देखकर	-10.9152
▁center	-10.9152
▁विश्लेषण	-10.9155
▁उन्नत	-10.9156
▁ரப்ப	-10.9157
▁Love	-10.916
action	-10.9165
▁सर्वोच्च	-10.9167
डु	-10.9169
பயன	-10.917
long	-10.917
हत	-10.917
நபர்	-10.9171
▁राज्यपाल	-10.9171
▁Bihar	-10.9171
▁funds	-10.9174
எல	-10.9175
500	-10.9176
73	-10.9177
▁slow	-10.9178
▁lesson	-10.9179
▁association	-10.918
இறங்க	-10.9181
स्‍	-10.9184
ography	-10.9184
▁borrow	-10.9186
▁Earth	-10.9186
▁शरीक	-10.9187
UR	-10.919
▁अन्त	-10.9193
▁entry	-10.9194
▁Gre	-10.9195
▁Contact	-10.9198
▁Remove	-10.9199
▁गठन	-10.9199
▁तुझे	-10.9203
▁annual	-10.9205
▁மீத	-10.9206
கதவ	-10.921
मिन	-10.9211
well	-10.9212
ரந்தல்	-10.9212
▁nations	-10.9214
பரம	-10.9214
▁टूट	-10.9214
▁Messengers	-10.9216
▁hidden	-10.9217
बै	-10.9218
▁busy	-10.9219
▁operations	-10.9222
▁stupid	-10.9224
फ्ट	-10.9228
▁transgress	-10.923
▁अगस्त	-10.923
▁Before	-10.9236
िष्	-10.9238
▁Far	-10.9238
off	-10.924
▁Trust	-10.9243
▁Western	-10.9243
லர	-10.9244
▁तोड़	-10.9247
▁rupees	-10.9249
▁border	-10.9249
▁मीटर	-10.9252
▁Mah	-10.9252
▁rid	-10.9253
▁Cor	-10.9254
▁दयालुता	-10.9255
▁स्वतः	-10.9257
▁aid	-10.9258
▁false	-10.9261
▁संवाद	-10.9262
▁ரயம	-10.9265
▁Shar	-10.9268
▁fee	-10.927
▁कॉल	-10.927
▁player	-10.9272
ural	-10.9274
▁blue	-10.9274
▁अध्याय	-10.9275
▁னத	-10.9278
स्ती	-10.9279
-2	-10.9289
படச்ச	-10.9291
▁scene	-10.9293
இரக்கவண்டம்	-10.9295
▁Edit	-10.9297
itis	-10.9298
▁divine	-10.93
मू	-10.9301
▁Path	-10.9303
▁मई	-10.9305
ரந்தன்	-10.9312
▁संबोधित	-10.9312
ஒரவர்	-10.9313
ेंद्र	-10.9314
▁km	-10.9317
81	-10.9319
▁Policy	-10.9319
▁रीति	-10.9319
▁फ्ल	-10.9326
▁डाटा	-10.9327
▁frame	-10.9328
▁interesting	-10.9328
view	-10.933
▁amongst	-10.9335
ero	-10.9337
▁Data	-10.9341
आप	-10.9341
சரயக	-10.9342
▁emerge	-10.9345
▁நடந்தத	-10.9346
▁caste	-10.9348
▁events	-10.935
▁remind	-10.9353
▁admit	-10.9356
▁किनारे	-10.9357
வழ்க்கய	-10.9359
▁anyway	-10.9362
▁चक्र	-10.9363
IM	-10.9363
ख्या	-10.9363
▁expert	-10.9364
▁दयावान	-10.9364
▁club	-10.9366
भोग	-10.9366
ப்பய்	-10.9366
▁लड़ाई	-10.9367
▁दूसरों	-10.937
▁जाओगे	-10.9373
भू	-10.9374
▁Hon	-10.9375
▁घटा	-10.9375
இங்கரந்த	-10.9375
பண்கள்	-10.9376
▁plugin	-10.9378
▁likely	-10.938
eous	-10.938
▁October	-10.9381
▁माह	-10.9381
ஒவ்வர	-10.9382
லட்	-10.9383
லண்ட	-10.9383
itch	-10.9388
▁tie	-10.939
▁debt	-10.939
▁அடச்ச	-10.939
நம்பக்க	-10.9395
இடத்தல்	-10.9395
க்கழ	-10.9396
ened	-10.9397
▁brothers	-10.9398
பயப்பட	-10.9399
▁lack	-10.94
தரம்	-10.9402
▁निवास	-10.9403
68	-10.9405
▁னம்	-10.9406
▁असम	-10.9407
▁circumstances	-10.9408
▁permanent	-10.9408
▁सर्वाधिक	-10.9409
▁planning	-10.9411
▁watching	-10.9411
▁जय	-10.9413
▁guilty	-10.9415
▁न्यायाधीश	-10.9415
சலத்த	-10.9419
டட்	-10.9426
▁दीर्घ	-10.9428
▁Language	-10.9428
▁लिंक	-10.943
back	-10.943
ili	-10.9432
▁समृद्ध	-10.9432
▁Bri	-10.9434
▁फैसला	-10.9434
▁महामहिम	-10.9434
▁अनुरोध	-10.9435
ache	-10.9439
சல்கறன்	-10.944
▁Forgiving	-10.9441
▁creature	-10.9441
▁dust	-10.9445
த்தக்கள்ள	-10.9447
▁अज्ञात	-10.9447
▁औषध	-10.9447
ायी	-10.9449
▁rare	-10.9449
▁Grand	-10.945
கவம்	-10.945
▁சம்ம	-10.9454
▁स्त्रियों	-10.9454
▁Find	-10.9454
▁race	-10.9454
▁कानूनी	-10.9457
தனத	-10.9458
▁criminal	-10.946
▁द्वीप	-10.946
▁मजदूर	-10.946
▁rob	-10.9461
▁आवाज़	-10.9461
படக்கம்	-10.9463
சகதர	-10.9466
▁earned	-10.9468
ளவ	-10.9469
ancy	-10.9469
ஓய்வ	-10.9471
▁इजरायल	-10.9473
▁प्राथमिक	-10.9474
யனத	-10.9476
▁adopted	-10.9476
▁வடக்க	-10.9476
▁drag	-10.9479
▁medicine	-10.9479
dis	-10.9482
ளத்த	-10.9483
दारी	-10.9485
▁deemed	-10.9486
63	-10.9486
▁उठाने	-10.9489
षित	-10.949
▁सदा	-10.949
▁चेतना	-10.9491
िस्ट	-10.9494
▁युक्ति	-10.9494
▁सिवाय	-10.9495
▁நன்இங்க	-10.9497
▁घोषित	-10.9499
स्थान	-10.9504
▁comment	-10.9505
▁प्रतीत	-10.9506
▁विन्यास	-10.9507
▁educational	-10.9508
ंभ	-10.951
NT	-10.9511
▁Secretary	-10.9512
▁Stay	-10.9512
ஏற	-10.9513
▁आसानी	-10.9513
▁उपयोगी	-10.9517
श्म	-10.9519
▁stopped	-10.9521
க்கறீர்கள	-10.9523
▁̄à	-10.9525
▁प्रयत्न	-10.9525
▁launch	-10.9525
▁doers	-10.9528
▁लिखी	-10.953
SP	-10.953
▁ख़ुद	-10.953
▁fool	-10.953
PI	-10.9533
फ्त	-10.9533
பர்ட்	-10.9539
▁Life	-10.9539
▁चलने	-10.9539
▁டன	-10.954
▁exists	-10.9541
வதக	-10.9542
▁flag	-10.9544
▁இரந்தத	-10.9546
▁darkness	-10.9547
78	-10.9547
▁affect	-10.9548
▁नेहरू	-10.9551
▁ஒரு	-10.9553
rated	-10.9553
▁आरोप	-10.9557
▁valid	-10.9557
▁birthday	-10.9558
▁कू	-10.9559
▁chosen	-10.9561
▁उत्पादों	-10.9562
▁arrangement	-10.9562
இங்கவந்த	-10.9565
VI	-10.9567
▁independent	-10.9568
▁scholar	-10.957
पान	-10.957
▁होंगी	-10.9572
பர்வ	-10.9574
▁अधिकारों	-10.9576
▁Three	-10.9577
வஷயங்கள்	-10.9578
▁ஏனனல்	-10.9589
நரத்தல்	-10.9591
58	-10.9591
▁Hari	-10.9592
▁slave	-10.9592
▁देखता	-10.9595
▁songs	-10.9596
▁करेगी	-10.9598
▁ஆர்	-10.9602
▁Art	-10.9603
▁प्रसार	-10.9603
▁heat	-10.9604
▁Water	-10.9606
இரக்கறம்	-10.9606
▁soil	-10.9608
▁छह	-10.9609
▁remote	-10.961
▁tend	-10.961
மடயல	-10.9611
▁प्रिय	-10.9615
▁ज़ि	-10.9616
▁2020	-10.9616
▁agreed	-10.9622
▁volume	-10.9623
▁कूटशब्द	-10.9623
▁பதய	-10.9623
▁Mag	-10.9623
▁टि	-10.9623
▁funny	-10.9624
▁syn	-10.9626
▁लोगो	-10.9628
▁fields	-10.9628
▁corner	-10.963
▁caught	-10.9631
▁tu	-10.9632
लोगों	-10.9634
▁cave	-10.9634
84	-10.9635
▁வத்த	-10.9636
▁Run	-10.9638
▁era	-10.964
▁scientist	-10.9643
▁प्रतीक्षा	-10.9643
▁School	-10.9643
▁बाबत	-10.9644
மடந்த	-10.9647
▁लड़के	-10.9648
▁இதத	-10.965
வலக	-10.9652
▁external	-10.9656
▁Finance	-10.9656
வழ்த்தக்கள்	-10.9656
▁map	-10.9657
▁Ob	-10.9658
पना	-10.966
▁Enter	-10.9662
ந்தவட்டத	-10.9663
67	-10.9663
▁weird	-10.9664
▁उत्पादक	-10.9665
▁plane	-10.9666
▁Mary	-10.9667
▁साबित	-10.9669
▁हिंदी	-10.967
ami	-10.967
எப்பத	-10.9671
மதப்ப	-10.9672
▁கண்ண	-10.9672
▁Satan	-10.9673
pher	-10.9678
▁अनुरूप	-10.9679
▁आनन्द	-10.9682
यदि	-10.9685
▁உள்ளத	-10.9688
छा	-10.9689
லக்	-10.9691
▁divided	-10.9692
▁जू	-10.9695
▁बीमारी	-10.9695
▁रस	-10.9697
तंत्र	-10.9697
சய்கறன்	-10.9698
▁u	-10.9698
▁division	-10.9703
▁Dec	-10.9705
▁declared	-10.9706
▁Port	-10.9707
mini	-10.9707
▁registered	-10.9708
▁आश्चर्य	-10.9709
▁ग़ालिब	-10.9709
भाष	-10.971
▁यक़ीनी	-10.9711
35	-10.9712
எப்ப	-10.9715
▁Nehru	-10.9715
▁लेंगे	-10.9718
▁जटिल	-10.9722
▁bodies	-10.9722
▁बन्दगी	-10.9724
वेश	-10.9725
▁uncle	-10.9726
स्तर	-10.9726
ள்ளன்	-10.9728
▁Second	-10.9728
▁ட்க	-10.9731
rag	-10.9732
▁pair	-10.9733
▁Person	-10.9737
85	-10.974
▁remains	-10.974
ஸ்ல	-10.974
சய்தன்	-10.974
▁सिफारिश	-10.9742
TA	-10.9743
▁Another	-10.9743
UN	-10.9743
▁यु	-10.9744
▁cancel	-10.9744
▁மடயம்	-10.9745
pra	-10.9745
▁column	-10.9748
▁proposal	-10.9748
▁November	-10.9749
▁September	-10.9753
தடர்ந்த	-10.9754
▁नूह	-10.9755
▁चढ़	-10.9757
िकल	-10.9759
எனத	-10.9761
▁அதல்	-10.9762
▁सुझाव	-10.9762
▁क्षति	-10.9762
▁cells	-10.9764
▁August	-10.9768
थो	-10.9769
▁pack	-10.9771
जब	-10.9775
▁Exchange	-10.9775
kan	-10.9784
▁flight	-10.9785
स्य	-10.9786
rator	-10.9789
ूंगा	-10.979
▁डाले	-10.9794
▁Besides	-10.9795
prh	-10.9796
▁दया	-10.9797
▁careful	-10.9797
▁कमजोर	-10.9802
▁offered	-10.9804
क्रिया	-10.9805
rai	-10.9806
▁ல்வத	-10.9808
▁Programme	-10.9812
▁ரட	-10.9813
gy	-10.9813
घर	-10.9814
▁मुक़ाबले	-10.9815
▁कितना	-10.9816
▁उधार	-10.9817
▁Force	-10.9821
▁deduction	-10.9822
हरे	-10.9822
▁एंड	-10.9824
etic	-10.9825
▁சன	-10.9829
▁Clear	-10.983
▁curse	-10.983
▁जहाज	-10.9832
▁भु	-10.9832
▁online	-10.9837
வல்லய	-10.9839
▁birds	-10.9841
▁वर्षा	-10.9842
wal	-10.9842
▁டத	-10.9845
▁somewhere	-10.9847
▁submit	-10.9847
▁शिखर	-10.9849
▁संकट	-10.9849
▁बॉ	-10.9851
▁2003	-10.9855
▁प्रतिनिधित्व	-10.9856
▁Cal	-10.9861
▁खुला	-10.9861
அவரக்க	-10.9862
▁नैतिक	-10.9862
▁bio	-10.9863
quest	-10.9868
कल्प	-10.9873
्रि	-10.9874
▁चीन	-10.9874
▁band	-10.9875
▁டங்க	-10.9875
▁Assembly	-10.9876
▁enhance	-10.9876
▁प्रशंसा	-10.9876
▁सचिव	-10.9876
▁मिनट	-10.9876
▁नोड	-10.9879
நண்பர்கள்	-10.9881
தீர்கள்	-10.9882
▁gardens	-10.9882
▁expand	-10.9882
▁bomb	-10.9886
▁functions	-10.9886
▁Chairman	-10.9889
▁विद्यमान	-10.9889
▁Kerala	-10.9889
hri	-10.989
▁Nice	-10.9892
▁Corporation	-10.9896
57	-10.9897
மயல்	-10.9902
▁प्रेरणा	-10.9903
▁utter	-10.9903
ूँगा	-10.9905
வதல்ல	-10.9906
தரயவல்ல	-10.9906
-1	-10.9909
rite	-10.9909
▁चिंता	-10.991
hoo	-10.991
மா	-10.9915
▁மடம்	-10.9916
▁stated	-10.9918
▁refuge	-10.9923
▁Black	-10.9931
▁உண்ம	-10.9935
▁सहज	-10.9939
சக்	-10.9943
▁पसन्द	-10.9944
ेक्ट	-10.9945
▁पति	-10.9947
▁देर	-10.9949
இரப்பன்	-10.995
சல்றன்	-10.995
▁भंडार	-10.9954
▁अन्दर	-10.9957
ஏற்பட	-10.9957
▁hunt	-10.9957
▁neck	-10.9959
எட்ட	-10.9959
▁हार	-10.996
ஒழ	-10.996
पार	-10.9961
▁Mission	-10.9962
é	-10.9964
▁garden	-10.9964
க்ள	-10.9967
▁developing	-10.997
▁परिणामस्वरूप	-10.997
▁सर्वेक्षण	-10.997
▁series	-10.9971
▁फे	-10.9972
रुप	-10.9973
நனத்தன்	-10.9975
dhi	-10.9976
shan	-10.9976
அவசர	-10.9977
ऱ	-10.9977
▁घटक	-10.9983
▁processing	-10.9983
28	-10.9984
▁fan	-10.9986
शिया	-10.9988
IP	-10.9988
▁reserve	-10.9991
▁kingdom	-10.9991
▁फोन	-10.9993
▁மயற்ச	-10.9993
tam	-10.9994
है	-10.9995
▁எட	-10.9996
▁पट	-11.0001
Go	-11.0001
▁Dar	-11.0003
रिस	-11.0003
▁अर्थात	-11.0004
ஒரந	-11.0007
கட்டம்	-11.0007
ஆன்	-11.0008
थि	-11.0008
ball	-11.0009
கம்ப	-11.0012
▁install	-11.0013
72	-11.0016
▁जाकर	-11.0017
▁कर्तव्य	-11.0018
▁जनसंख्या	-11.0018
▁tongue	-11.0018
vic	-11.0022
மடம்	-11.0022
▁खुली	-11.0023
ளர	-11.0027
▁Comment	-11.0027
இரக்கறய்	-11.0029
▁जितना	-11.0032
தயவசய்த	-11.0037
▁confidence	-11.0039
▁धैर्य	-11.0039
▁Jai	-11.0041
▁Shut	-11.0042
னர	-11.0042
நச	-11.0043
▁ka	-11.0045
▁Control	-11.0045
▁बादशाह	-11.0048
▁चाह	-11.0049
▁recompense	-11.0052
▁signal	-11.0052
▁assume	-11.0054
इयों	-11.0055
னலம்	-11.0055
अज़ाब	-11.0056
▁वहीं	-11.0056
▁park	-11.0059
ॉँ	-11.0062
▁टुकड	-11.0063
▁कार्यान्वयन	-11.0066
ஆல	-11.0067
பதல்	-11.0068
ोक	-11.0069
ावली	-11.0071
▁schemes	-11.0072
comp	-11.0072
▁Conference	-11.0073
▁vehicle	-11.0073
▁मुझसे	-11.0075
▁expressed	-11.0075
▁आक्रमण	-11.0076
षा	-11.0076
▁सच्चा	-11.0077
ஜக்	-11.008
▁president	-11.008
▁filled	-11.0081
▁2011	-11.0083
ரப்பத	-11.0087
याद	-11.0087
▁निहित	-11.009
சய்தத	-11.009
सिक	-11.0092
▁conflict	-11.0094
▁समर्थ	-11.0094
அறய	-11.0094
▁foundation	-11.0095
▁inform	-11.0096
▁Sta	-11.0096
US	-11.0096
கஇரக்கம்	-11.0098
▁पंजीकरण	-11.01
▁राजनैतिक	-11.0107
▁அர	-11.011
▁2004	-11.011
▁additional	-11.0111
▁destination	-11.0114
▁{0}	-11.0114
▁सुभाष	-11.0116
▁சீக்கரம்	-11.0116
▁தீ	-11.0117
द्य	-11.0118
▁जिनको	-11.012
▁French	-11.0121
▁समझौता	-11.0121
▁Play	-11.0122
▁consciousness	-11.0122
▁failure	-11.0122
பரஞ்ச	-11.0125
lex	-11.0127
▁Bir	-11.0129
▁contained	-11.0131
▁समाप्ति	-11.0132
ोगे	-11.0132
run	-11.0133
रोह	-11.0134
▁Print	-11.0136
▁चमक	-11.014
▁friendly	-11.014
▁सिखा	-11.0141
▁கள்வ	-11.0144
▁avail	-11.0146
▁rejected	-11.0147
▁115	-11.0147
▁डाय	-11.0149
▁positive	-11.0149
ஸ்ஸ	-11.0154
▁विपरीत	-11.0156
▁reality	-11.0157
▁Shiva	-11.0158
▁showed	-11.0158
த்தயம்	-11.0158
▁painting	-11.016
▁70	-11.0166
ेन्द्र	-11.0169
μ	-11.017
▁हत्या	-11.017
▁शासक	-11.017
▁மன்னக்கணம்	-11.0171
▁कौ	-11.0175
▁पाठ्यक्रम	-11.0176
▁काफ़ी	-11.0177
▁temples	-11.0181
coming	-11.0181
▁கடந்த	-11.0182
भेद	-11.0182
▁पाते	-11.0183
▁பதகப்ப	-11.0183
IA	-11.0184
▁Command	-11.0185
place	-11.0187
▁वैसे	-11.0189
▁उद्योगों	-11.0189
மகம்	-11.0191
▁reveal	-11.0193
▁standards	-11.0196
வந்தரக்க	-11.0197
ंडा	-11.0198
▁पूर्वी	-11.0198
▁ride	-11.0201
கலத்த	-11.0201
▁render	-11.0204
▁SAW	-11.0204
¤1	-11.0209
कर्म	-11.0211
▁Uttar	-11.0211
ूं	-11.0211
कर्ताओं	-11.0214
ணய	-11.0215
▁श्रम	-11.0216
▁उपक्रम	-11.0216
▁Dh	-11.022
▁Special	-11.0225
▁shift	-11.0225
▁प्रबंधक	-11.0225
▁phase	-11.0226
▁उड़	-11.0226
▁artist	-11.0227
▁उच्चतम	-11.0228
▁अदालत	-11.0232
▁अक्षर	-11.0234
▁achievement	-11.0236
▁shares	-11.0237
र्ध	-11.0237
▁Nay	-11.0243
▁पाई	-11.0245
▁fruits	-11.0247
▁UN	-11.025
▁web	-11.025
थी	-11.0252
▁साफ़	-11.0253
▁पृथ्वी	-11.0253
ched	-11.0254
ked	-11.0255
▁निकाय	-11.0255
26	-11.0255
ET	-11.0256
▁messenger	-11.0258
▁academic	-11.026
▁Ganga	-11.0261
▁images	-11.0263
▁ट्रैक	-11.0265
▁anywhere	-11.0266
▁Welcome	-11.0267
▁dinner	-11.0267
▁खान	-11.027
▁2009	-11.027
▁टीम	-11.0274
ङ	-11.0274
खंड	-11.0281
▁डाउनलोड	-11.0281
▁கீழ	-11.0283
ट्रि	-11.0287
▁sounds	-11.0287
▁कनेक्शन	-11.0288
▁incident	-11.0288
▁partnership	-11.0289
ம்பட	-11.0289
▁ஒரத	-11.0293
DO	-11.0294
▁policies	-11.0295
▁Key	-11.0299
▁jail	-11.03
▁संगठनों	-11.03
▁hall	-11.0302
க்கமடயத	-11.0302
▁abroad	-11.0302
▁शारीरिक	-11.0302
कभी	-11.0303
ழ்ந்த	-11.0304
Our	-11.0305
क्रो	-11.0306
▁wave	-11.0309
▁विवेक	-11.0309
▁अधिसूचना	-11.031
▁सर्	-11.0313
பகறன்	-11.0314
house	-11.0316
▁आरम्भ	-11.0317
▁सुविधाओं	-11.0319
▁Unto	-11.0319
राज्य	-11.0321
ட்டக்க	-11.0321
▁actual	-11.0321
தரந்த	-11.0324
▁cow	-11.0325
▁Tha	-11.0327
agon	-11.0327
क्यू	-11.0328
▁பகலம்	-11.0328
▁soft	-11.0329
▁iron	-11.0333
▁broad	-11.0333
yn	-11.0336
soever	-11.0336
▁उपबंधों	-11.0343
▁amazing	-11.0344
▁यूसुफ	-11.0352
▁input	-11.0354
▁carrying	-11.0354
▁सरकारों	-11.0356
▁yesterday	-11.0359
▁context	-11.0359
ச்சன்ன	-11.036
▁impact	-11.0361
▁எப்பத	-11.0361
அரச	-11.0362
▁चुने	-11.0362
ulate	-11.0363
▁variety	-11.0366
▁चुनौती	-11.0366
▁medium	-11.0369
लाइन	-11.0373
▁कागज	-11.0376
bed	-11.0376
▁माप	-11.0378
CR	-11.038
▁दाखिल	-11.038
ridge	-11.0381
▁Swa	-11.0382
▁நீயம்	-11.0385
ँग	-11.0385
▁गतिविधि	-11.0386
नगर	-11.0388
वाय	-11.039
▁mate	-11.0399
▁पेंशन	-11.0401
NA	-11.0402
▁constitution	-11.0402
▁removed	-11.0403
लोक	-11.0405
कुछ	-11.0406
▁हरि	-11.0406
▁बटन	-11.0406
▁dated	-11.0407
▁confident	-11.0408
▁extended	-11.0409
▁Paradise	-11.0415
▁नक़ल	-11.0416
▁केरल	-11.0417
▁टै	-11.0419
▁planet	-11.0419
▁उठाया	-11.0421
இள	-11.0421
▁मुद्दों	-11.0422
▁charges	-11.0423
▁Description	-11.0424
ஆண்கள்	-11.0427
▁एड	-11.0429
▁manufacture	-11.043
▁Assam	-11.043
प्राप्त	-11.0431
▁grown	-11.0435
க்கறீர்கள்	-11.0437
▁अकबर	-11.0437
▁client	-11.0438
▁நலம	-11.0441
▁July	-11.0442
▁आंख	-11.0443
▁desires	-11.0443
▁जिले	-11.0445
இரக்கணம்	-11.0453
▁अल्	-11.0454
▁larger	-11.0455
▁सशक्त	-11.0458
▁speaking	-11.0458
pho	-11.0458
▁जीत	-11.0458
▁இதக	-11.0459
▁கப	-11.0459
▁Each	-11.0459
▁oath	-11.0459
▁bright	-11.0461
▁பணம்	-11.0465
▁smart	-11.0466
फ़ी	-11.0469
ena	-11.0471
▁TV	-11.0471
▁प्रोत्साहित	-11.0472
▁withdraw	-11.0473
▁उपर	-11.0473
So	-11.0479
▁तूने	-11.0479
▁wisdom	-11.048
▁Val	-11.048
▁quickly	-11.048
▁description	-11.0482
▁Raja	-11.0482
▁इन्कार	-11.0483
மறய	-11.0484
▁trip	-11.0485
▁bri	-11.0486
▁element	-11.0488
ियत	-11.0488
dition	-11.0489
வரம்பவல்ல	-11.0493
▁रहमत	-11.0497
nia	-11.0498
▁vast	-11.0502
ஷ்ட	-11.0505
दादा	-11.0506
▁पड़ी	-11.0507
கடச	-11.0508
▁उत्साह	-11.0508
29	-11.0508
நரத்த	-11.0509
lah	-11.0511
கணம்	-11.0514
▁निगरानी	-11.0515
▁ज्ञात	-11.0515
▁saving	-11.0516
▁decree	-11.0516
nti	-11.0518
▁1956	-11.0519
▁Q	-11.0519
▁Za	-11.052
▁component	-11.0523
▁मुलाकात	-11.0523
▁शैक्षिक	-11.0523
▁indicate	-11.0523
▁joke	-11.0524
82	-11.0527
▁Nu	-11.0528
▁Brother	-11.053
வரகறன்	-11.0533
▁चीज़ों	-11.0534
ரச்ச	-11.0534
▁delivered	-11.0534
‍	-11.0536
▁ice	-11.0537
▁starting	-11.0541
▁ताकत	-11.0542
▁டக்டர்	-11.0542
▁घंटे	-11.0544
▁Gandhiji	-11.0546
▁रेलवे	-11.0546
▁नयी	-11.0546
▁ஈ	-11.0549
▁बीमार	-11.0549
▁जिनसे	-11.0551
▁लौटा	-11.0553
▁Sit	-11.0556
▁சக்க	-11.0557
▁Bur	-11.0558
book	-11.0558
▁remained	-11.0558
▁library	-11.0559
▁कहाँ	-11.056
▁chain	-11.0564
▁Ham	-11.0564
▁प्राधिकारी	-11.0565
▁हैंः	-11.0565
▁फिरऔन	-11.0566
▁समर्पित	-11.0566
▁पूज्य	-11.0569
▁elements	-11.0572
▁போ	-11.0573
व्	-11.0573
▁यूनिट	-11.0573
▁महाराष्ट्र	-11.0574
▁वर्ण	-11.0576
▁बक	-11.0577
▁सूत्र	-11.0578
▁teachers	-11.058
▁monitor	-11.058
▁poems	-11.0581
▁पहुँचे	-11.0582
▁fly	-11.0583
▁लिखित	-11.0587
▁परिवहन	-11.0587
▁lit	-11.0588
சந்தஷம	-11.0589
▁adopt	-11.0591
▁bringing	-11.0594
कुफ़्र	-11.0595
▁Jan	-11.0596
▁छात्रों	-11.0596
▁வரம்	-11.0599
▁stars	-11.0601
▁described	-11.0602
நல்லஇரக்க	-11.0605
head	-11.0606
empt	-11.0606
▁आकर	-11.0608
▁संगम	-11.0608
ச்சரக்க	-11.0608
▁payable	-11.061
▁नाग	-11.0612
▁suffering	-11.0616
▁complaint	-11.0621
▁journal	-11.0624
▁arrived	-11.0624
▁queen	-11.0624
பரந்த	-11.0625
வளயற	-11.0625
धू	-11.0631
▁ज़ाहिर	-11.0638
▁pla	-11.0639
▁हमसे	-11.0639
27	-11.0639
▁बदलने	-11.064
aff	-11.064
▁अभिव्यक्ति	-11.0641
100	-11.0644
▁York	-11.0646
▁Number	-11.0646
▁messengers	-11.0648
▁construct	-11.0649
bra	-11.0649
▁श्रृंखला	-11.0653
▁संपादक	-11.0653
▁camera	-11.0655
▁साझीदार	-11.0656
cker	-11.0661
▁गणना	-11.0661
▁initial	-11.0662
அவளக்க	-11.0662
வீர்கள்	-11.0662
▁सॉफ्टवेयर	-11.0667
AB	-11.0668
▁definitely	-11.0671
▁उलट	-11.0675
▁எப்ப	-11.0675
▁District	-11.0682
▁इंटरनेट	-11.0682
▁daily	-11.0682
phy	-11.0684
बूझ	-11.0686
ல்தன்	-11.0688
▁तिर	-11.0689
▁dangerous	-11.069
நற்க	-11.0693
தட்டம்	-11.0694
EA	-11.0694
फ्र	-11.0694
▁घड़ी	-11.0695
▁सन्तान	-11.0697
▁smell	-11.0697
▁फेंक	-11.07
▁clothes	-11.0701
▁अस्थि	-11.0702
▁throughout	-11.0703
▁independence	-11.0704
▁studies	-11.0704
▁कार्यवाही	-11.0704
▁समीक्षा	-11.0704
▁translate	-11.0705
▁font	-11.0706
▁नबी	-11.0707
▁refers	-11.0707
्क	-11.0709
▁undertaking	-11.0711
▁estimate	-11.0711
than	-11.0711
கழந்தகள்	-11.0712
ஒரபதம்	-11.0712
cum	-11.0715
▁அவற்ற	-11.0721
அதற்க	-11.0721
other	-11.0725
▁truthful	-11.0725
▁पाल	-11.0725
▁realize	-11.0725
▁कलकत्ता	-11.0726
▁ji	-11.0726
▁सलाम	-11.0726
▁Master	-11.0727
▁கட்க	-11.073
Muhammad	-11.0732
▁distribution	-11.0736
▁sake	-11.0737
▁row	-11.0738
▁झुक	-11.074
rick	-11.074
▁लगते	-11.074
▁யரக்க	-11.074
▁मिसाल	-11.0741
▁अगला	-11.0744
ृष्ट	-11.0746
▁recently	-11.0747
▁ज़िन्दगी	-11.0748
▁minor	-11.0749
after	-11.0749
itude	-11.0749
▁Star	-11.0753
▁determined	-11.0754
▁जरिए	-11.0755
▁पुस्तकालय	-11.0756
▁संयंत्र	-11.0757
எப்படஇரக்க	-11.0759
▁हॉ	-11.0759
▁vital	-11.0759
▁सेटिंग	-11.076
▁crops	-11.076
▁Vo	-11.076
ंघ	-11.0762
▁east	-11.0763
▁साहस	-11.0764
▁pop	-11.077
▁desert	-11.077
लिप	-11.0775
▁आवाज	-11.0776
அப்	-11.0777
▁परिवर्तित	-11.0777
▁spring	-11.0781
கரல்	-11.0783
கதல்	-11.0783
▁student	-11.0784
ிய	-11.0785
▁mid	-11.0785
hana	-11.0785
உரம	-11.079
LI	-11.0791
मिल	-11.0792
▁तथापि	-11.0792
ஆட்ட	-11.0792
▁victory	-11.0792
ஸன்	-11.0794
▁warn	-11.0795
▁Knowing	-11.08
lon	-11.0801
▁introduced	-11.0801
▁உனக்கக	-11.0802
▁pleased	-11.0803
▁miles	-11.0805
▁Division	-11.0808
ट्रो	-11.0809
▁click	-11.0809
மன்னக்கவம்	-11.0809
▁Hand	-11.0809
ஸக்க	-11.0811
▁director	-11.0812
▁delay	-11.0812
▁अन्यथा	-11.0812
▁memo	-11.0814
▁liar	-11.0817
▁समग्र	-11.0817
▁300	-11.0818
▁reply	-11.0818
▁notification	-11.0819
▁launched	-11.0821
எல்லவற்றயம்	-11.0822
▁फु	-11.0822
▁पृष्ठभूमि	-11.0822
சய்யற	-11.0825
▁लॉ	-11.0828
▁Police	-11.0829
பயங்கர	-11.0831
கதய	-11.0831
विद	-11.0832
▁signed	-11.0834
यान	-11.0836
▁तस्वीर	-11.0836
▁survive	-11.0836
▁तलाश	-11.0837
▁धारण	-11.0837
stitution	-11.0837
▁अनुपात	-11.0838
▁लाते	-11.0838
பறப்ப	-11.0841
▁closed	-11.0844
▁सभ्यता	-11.0844
▁instance	-11.0844
▁भेजें	-11.0847
▁Color	-11.0851
▁யற்ச	-11.0851
ender	-11.0852
இரக்கறீர்கள்	-11.0853
வலக்க	-11.0853
▁burning	-11.0856
2014	-11.0857
▁opt	-11.0857
▁Four	-11.0858
▁worried	-11.0859
▁drugs	-11.0859
ंटी	-11.086
*	-11.0861
▁गुफा	-11.0862
▁~	-11.0862
▁Sar	-11.0865
▁मस्तिष्क	-11.0866
▁nearly	-11.0868
▁गि	-11.0868
ानु	-11.0868
had	-11.0872
49	-11.0874
▁jump	-11.0876
கன்ன	-11.0876
▁आना	-11.0878
▁finish	-11.0878
▁क़ुरान	-11.0879
▁கண்டப்பக	-11.088
▁युक्त	-11.0881
▁Sometimes	-11.0881
▁glass	-11.0881
▁cattle	-11.0882
சன்னத	-11.0882
osis	-11.0883
▁न्यास	-11.0888
▁अंध	-11.0888
▁Maharashtra	-11.0889
▁promotion	-11.0889
▁कार्	-11.0889
▁शहरी	-11.089
▁bitch	-11.0891
▁विभाजन	-11.0896
▁श्रेष्ठ	-11.0896
▁राजस्थान	-11.0897
▁Fine	-11.0898
▁चालू	-11.09
ग्रा	-11.0903
▁ஆண்ட	-11.0903
ார்	-11.0904
▁Way	-11.0906
▁अन्तर्	-11.0906
வடக்க	-11.0907
▁Ask	-11.0908
▁छत	-11.0908
▁Cam	-11.0908
▁characters	-11.0909
▁मुश्किल	-11.0911
▁plot	-11.0911
▁passing	-11.0911
SL	-11.0912
▁joined	-11.0912
▁coin	-11.0915
▁खि	-11.0917
▁changing	-11.0918
▁इनका	-11.092
த்தலரந்த	-11.0923
▁सचेत	-11.0923
ाणु	-11.0924
that	-11.0926
▁excellent	-11.0926
श्च	-11.0936
▁mountain	-11.0937
▁मिलेगा	-11.0938
▁டச்ச	-11.0939
▁कश्मीर	-11.094
▁highly	-11.0942
▁वंश	-11.0943
▁நற்ற	-11.0944
▁महल	-11.0947
▁Type	-11.095
பயண	-11.095
▁इसको	-11.0952
▁01	-11.0953
றன	-11.0955
serving	-11.0956
▁stood	-11.0956
▁औलाद	-11.0956
அவனக்க	-11.0957
▁Kumar	-11.0957
सम्	-11.0959
ैक	-11.0962
▁Rajasthan	-11.0963
▁सतह	-11.0964
ஹர்	-11.0964
▁फार्म	-11.0965
▁guest	-11.0967
▁suddenly	-11.0971
▁sending	-11.0971
▁छाप	-11.0974
▁assigned	-11.0978
▁स्कीम	-11.0979
31	-11.0979
▁options	-11.0979
▁द्वि	-11.098
▁bat	-11.0981
▁36	-11.0986
▁arms	-11.0987
▁Cur	-11.0987
46	-11.0992
ரப்பன்	-11.0993
▁हवाई	-11.0995
கன்றனர்	-11.0998
▁Gen	-11.0999
கத்தன்	-11.1
▁afford	-11.1001
▁happiness	-11.1001
▁कदापि	-11.1001
▁observed	-11.1001
களடன்	-11.1004
▁संत	-11.1004
▁CH	-11.1006
▁नंबर	-11.1007
elect	-11.1007
कै	-11.1008
▁मकान	-11.1009
देख	-11.1009
600	-11.101
சய்யவல்ல	-11.1012
▁urge	-11.1012
भ्र	-11.1013
▁stress	-11.1016
▁प्रारंभिक	-11.1017
▁affairs	-11.1017
▁Nav	-11.1017
▁involve	-11.102
வலத	-11.1024
▁ஜர்	-11.1027
▁blessings	-11.1029
EE	-11.103
्ते	-11.1031
क़्	-11.1031
▁philosophy	-11.1031
▁representative	-11.1032
நறவன	-11.1033
logical	-11.1035
சல்லம்	-11.1036
लिन	-11.1037
फू	-11.1039
▁sugar	-11.104
▁लंबे	-11.104
▁அவர்களக்க	-11.104
▁reduce	-11.1043
▁output	-11.1046
▁अचानक	-11.1046
▁नुकसान	-11.1046
▁प्राधिकरण	-11.1046
▁आसपास	-11.1046
▁talent	-11.1047
▁जेल	-11.1051
▁equipment	-11.1054
▁निष्क्रिय	-11.1054
▁detect	-11.1055
▁दुखद	-11.1056
▁Bhag	-11.1061
யலரந்த	-11.1064
▁Chand	-11.1066
ட்ப	-11.1067
▁வி	-11.1068
▁dreams	-11.1069
EL	-11.1075
स्को	-11.1076
▁prince	-11.1077
▁City	-11.1077
▁editor	-11.1077
▁express	-11.1078
मूल	-11.1079
▁background	-11.1079
▁crop	-11.1082
▁sand	-11.1083
▁देय	-11.1084
ண்டர்	-11.1084
▁अमेरिकी	-11.1084
▁जादू	-11.1084
▁reminder	-11.109
py	-11.1091
ima	-11.1093
▁radio	-11.1095
गामी	-11.1095
எப்பவம்	-11.1097
▁counter	-11.1097
▁नेपाल	-11.1098
▁जुलाई	-11.1099
▁stat	-11.1101
▁Date	-11.1104
▁Certificate	-11.1107
▁जलवायु	-11.1107
▁फ़ॉन्ट	-11.1107
▁descend	-11.1107
சல்றத	-11.111
▁discuss	-11.111
▁showing	-11.1111
▁courage	-11.1115
▁defined	-11.1115
▁honey	-11.1115
அரம	-11.1116
▁records	-11.1119
▁delivery	-11.1121
▁संदेह	-11.1122
▁जन्नत	-11.1122
PS	-11.1123
▁मंत्रि	-11.1128
பதய	-11.1129
▁poverty	-11.113
▁schedule	-11.113
▁tidings	-11.113
▁ज़्यादा	-11.113
▁Var	-11.1134
உணர்ந்த	-11.1138
▁विशेषकर	-11.1138
▁महात्मा	-11.1138
▁शहरों	-11.1142
▁150	-11.1144
▁दरमियान	-11.1145
▁History	-11.1145
நீர்	-11.1147
न्ह	-11.115
▁சக்	-11.1151
▁restrict	-11.1153
▁creating	-11.1155
temp	-11.1155
▁ரங்கள்	-11.1157
ग्राम	-11.1157
je	-11.1159
योजन	-11.116
▁दोहरा	-11.116
▁resolution	-11.1161
▁Tagore	-11.1161
▁Watch	-11.1161
▁आख़िर	-11.1163
எளத	-11.1163
▁தயர	-11.1167
क़ियामत	-11.1168
▁இதஎன்ன	-11.1171
▁யரவத	-11.1171
nation	-11.1173
▁maximum	-11.1176
▁Akbar	-11.1176
गान	-11.1176
அமத	-11.1179
▁संलग्न	-11.118
▁सजदा	-11.118
▁மக்	-11.118
▁करोगे	-11.1181
पू	-11.1183
▁damn	-11.1184
▁majority	-11.1184
▁Ow	-11.1185
▁properly	-11.1186
▁இடத்த	-11.1188
hya	-11.1189
▁जग	-11.1191
ப்பங்க	-11.1195
வண்டயத	-11.1197
ories	-11.1198
தலய	-11.1202
▁सागर	-11.1204
மனம்	-11.1205
▁killing	-11.1205
▁समर्थित	-11.1205
▁Nepal	-11.1208
பயணம்	-11.121
▁योजनाओं	-11.1211
▁flat	-11.1212
▁हस्त	-11.1214
▁पारंपरिक	-11.1214
▁प्यार	-11.1215
நட்ப	-11.1216
कुशल	-11.1217
LO	-11.1217
समय	-11.1219
▁drinking	-11.122
▁आराम	-11.1222
க்கம்பத	-11.1222
▁literary	-11.1222
▁घाटे	-11.1222
▁ear	-11.1222
▁defeat	-11.1222
hak	-11.1226
▁brave	-11.1227
▁கடம்பத்த	-11.1229
▁अना	-11.1229
राष्ट्रीय	-11.123
▁எனக்கஒர	-11.123
Why	-11.1231
▁साझा	-11.1232
▁February	-11.1234
lp	-11.1235
CP	-11.1235
pre	-11.1236
அத்த	-11.1239
யரக்கம்	-11.124
பரட்ட	-11.1242
▁2010	-11.1242
▁flowers	-11.1243
சல்லங்க	-11.1245
▁publication	-11.1248
मै	-11.1248
▁चन्द्र	-11.1251
▁ocean	-11.1253
शाली	-11.1254
▁Close	-11.1254
▁Mor	-11.126
▁conference	-11.1261
▁द्वितीय	-11.1261
▁चैनल	-11.1261
▁unity	-11.1262
lib	-11.1262
यत	-11.1264
▁जोड़ने	-11.1265
▁Speaking	-11.1267
▁मूल्यों	-11.1267
றீங்கள	-11.1268
▁wake	-11.1272
oph	-11.1273
▁consumer	-11.1274
▁खुल	-11.1275
▁authentic	-11.1276
▁அப்பவ	-11.1276
▁கதல	-11.1276
▁रोकने	-11.1276
▁edit	-11.1277
▁critical	-11.1278
▁west	-11.1281
▁पत्रिका	-11.1282
गाह	-11.1283
▁अगल	-11.1284
▁इकट्ठा	-11.1284
▁fuel	-11.1284
▁पुनर	-11.1286
95	-11.1288
▁विश्वविद्यालयों	-11.1288
ல்கள	-11.129
▁नेताओं	-11.129
ஆஃப்	-11.1291
▁consequence	-11.1292
ाइन	-11.1292
▁Someone	-11.1294
▁अनुदान	-11.1295
क़त	-11.1297
▁देखे	-11.1298
▁breast	-11.1299
HE	-11.13
▁hyp	-11.1306
▁कोशिका	-11.1307
▁lord	-11.1308
▁மதலல்	-11.1309
टू	-11.1309
▁प्रतिष्ठा	-11.1315
▁edge	-11.1316
▁सारा	-11.1321
▁इम	-11.1321
ஸ்டன்	-11.1322
आईटी	-11.1322
▁audit	-11.1323
▁prison	-11.1324
▁merely	-11.1324
▁कम्पनी	-11.1326
தரவ	-11.1327
▁बरस	-11.1328
▁चलाने	-11.1329
▁served	-11.133
▁लकड़ी	-11.1331
▁excuse	-11.1331
▁पुरानी	-11.1331
▁branch	-11.1334
cate	-11.1338
▁boss	-11.134
▁Father	-11.134
▁Ye	-11.134
▁bird	-11.1341
▁पह	-11.1344
▁वाक़िफ	-11.1345
ALL	-11.1346
Peace	-11.1346
▁Win	-11.1348
▁Services	-11.1348
▁तंग	-11.1349
▁शाम	-11.135
வரம்பகறன்	-11.1351
poli	-11.1351
▁आकर्षित	-11.1354
▁Turn	-11.1355
சய்க	-11.1355
list	-11.1356
▁Try	-11.1357
NO	-11.1358
▁ஜக்	-11.1359
▁yield	-11.1362
▁Count	-11.1362
▁Bengali	-11.1362
▁राजनीति	-11.1362
▁whosoever	-11.1365
▁जानने	-11.1369
▁College	-11.137
▁मॉडल	-11.137
▁विरोधी	-11.137
▁Health	-11.137
▁ரயல	-11.1372
kara	-11.1372
▁facility	-11.1377
▁बिलकुल	-11.1378
▁career	-11.1384
▁आफ	-11.1385
▁challenges	-11.1385
▁universal	-11.1385
▁सौर	-11.1385
▁उद	-11.1387
ஹீர	-11.1387
bon	-11.1388
▁भंडारण	-11.1389
92	-11.1392
▁coffee	-11.1393
▁कंपनियों	-11.1393
▁सुदृढ़	-11.1393
▁attitude	-11.1393
▁लेखन	-11.1395
▁பயன்	-11.1398
िज़	-11.1399
▁जापान	-11.1401
▁insurance	-11.1401
▁committee	-11.1401
पुष्प	-11.1402
சம்ம	-11.1403
नियम	-11.1404
▁shared	-11.1405
சந்தப்ப	-11.1405
▁Lin	-11.1407
स्‍थ	-11.1408
▁campaign	-11.1409
▁आमतौर	-11.1409
▁मोड़	-11.141
பகலம்	-11.1411
▁लानेवालो	-11.1411
lish	-11.1411
▁ரயவல்ல	-11.1412
▁प्रेस	-11.1412
▁approved	-11.1415
train	-11.1418
▁घटनाओं	-11.1418
east	-11.1418
▁Zo	-11.1422
▁नस्ल	-11.1425
தயரக	-11.1427
▁भि	-11.1429
▁respond	-11.143
arian	-11.1431
▁நன்அவர	-11.1431
▁danger	-11.1431
மன்னப்ப	-11.1431
▁வரங்கள்	-11.1434
▁प्रशासनिक	-11.1437
▁बनाये	-11.1439
▁Social	-11.144
▁समावेश	-11.1441
▁कामना	-11.1441
▁दिखाता	-11.1442
▁establishment	-11.1442
▁अत्याचार	-11.1443
▁கல்ல	-11.1444
▁बौद्ध	-11.1444
▁experiment	-11.1448
கட்டய	-11.1453
पद	-11.1453
சத்தயம்	-11.1458
▁02	-11.1459
▁मृत	-11.146
▁Grace	-11.1461
ற்கள்	-11.1461
▁சட	-11.1462
▁inner	-11.1463
▁rent	-11.1463
▁released	-11.1463
▁England	-11.1464
▁पुष्टि	-11.1464
▁अवज्ञा	-11.1465
itor	-11.1465
கன்ற	-11.1466
▁Pal	-11.1467
क़्त	-11.1468
▁rapid	-11.1472
▁प्रजाति	-11.1472
▁household	-11.1473
▁Year	-11.1484
▁drama	-11.1485
▁Unit	-11.1489
▁calm	-11.1489
▁sculpture	-11.1495
ञ	-11.1497
கப்பற்ற	-11.1503
32	-11.1503
▁नहरें	-11.1503
▁seemed	-11.1505
▁இதற்க	-11.1507
▁substance	-11.1511
▁चोट	-11.1512
▁internal	-11.1513
▁ईमेल	-11.1513
▁package	-11.1514
ரயல்	-11.1515
▁devotion	-11.1519
▁नेअमत	-11.1519
டம்பச	-11.1522
▁क्षमाशील	-11.1522
ரத்தம்	-11.1523
ंठ	-11.1524
OP	-11.1524
▁Noah	-11.1525
▁नाथ	-11.1525
▁minimum	-11.1527
▁இங்கவ	-11.1527
▁Ten	-11.1529
ऑ	-11.1529
▁औरतों	-11.153
पित	-11.1532
▁obtain	-11.1535
▁फोटो	-11.1536
▁மடவ	-11.1537
பறன்	-11.1539
வடன்	-11.1539
▁generations	-11.1541
▁disappear	-11.1543
▁नकद	-11.1548
▁रिक्त	-11.1549
▁menu	-11.1551
▁wives	-11.1551
▁विद्यालय	-11.1551
க்கறர்கள்	-11.1552
scription	-11.1553
▁grave	-11.1555
▁चुना	-11.1555
▁उक्त	-11.1558
▁கன்	-11.1559
▁examination	-11.1559
▁नवान्वेषण	-11.1559
▁tab	-11.1564
▁route	-11.1564
plication	-11.1564
▁multiple	-11.1568
▁அம்மவ	-11.1569
▁कुमार	-11.1572
▁plea	-11.1573
▁realise	-11.1582
உறதய	-11.1583
▁विनिमय	-11.1583
▁परमाणु	-11.1583
யடம்	-11.1584
▁Auto	-11.1584
▁मुक़र्रर	-11.1584
▁சற்ற	-11.1591
▁hotel	-11.1596
▁pot	-11.1597
▁bottom	-11.1599
▁ஓட	-11.1604
▁இன்னர	-11.1608
▁metal	-11.161
▁आकृति	-11.161
யஸ்	-11.1611
CO	-11.1612
दर्शी	-11.1614
▁नियंत्रित	-11.1615
▁फरवरी	-11.1615
ेयर	-11.1616
▁mainly	-11.1619
लाल	-11.1625
▁weather	-11.1625
De	-11.1626
▁chair	-11.1628
அனவர	-11.1631
▁primary	-11.1631
▁चेतावनी	-11.1631
▁Mahatma	-11.1631
▁संविदा	-11.1632
▁इनकी	-11.1637
▁विरासत	-11.1639
▁Internet	-11.1639
▁drawn	-11.1641
▁palm	-11.1642
▁extension	-11.1647
▁व्यावसायिक	-11.1647
▁जुड़	-11.1647
▁dwell	-11.1648
▁உனக்கத	-11.1648
▁authorities	-11.1649
தன்ற	-11.165
▁कराया	-11.165
Who	-11.1651
▁उपस्थिति	-11.1652
▁ruler	-11.1655
▁impossible	-11.1655
▁बाह्य	-11.1655
▁grain	-11.1656
एच	-11.1656
मह	-11.1656
கச்	-11.1657
मोहन	-11.1658
த்தற	-11.166
▁Hour	-11.1661
▁affected	-11.1662
அற்பதமன	-11.1663
▁relief	-11.1663
अनु	-11.1664
▁फ़रमा	-11.1664
▁petitioner	-11.1666
தறம	-11.1669
क्री	-11.167
▁संसदीय	-11.167
▁Sen	-11.1671
▁angry	-11.1671
▁Ty	-11.1673
▁threat	-11.1674
▁बढ़ती	-11.1674
▁कृति	-11.1675
இரக்கறர்	-11.1676
▁अनक़रीब	-11.1679
▁tear	-11.1681
யல்லம்	-11.1681
▁நன்இத	-11.1681
▁excess	-11.1687
▁Among	-11.1688
▁शक्तियों	-11.1689
▁bridge	-11.169
▁கடத	-11.1691
▁1947	-11.1692
eng	-11.1694
▁சரயன	-11.1694
ூ	-11.1695
▁Gold	-11.1696
தனயக	-11.1697
சய்யம்	-11.1701
▁நள்	-11.1702
_	-11.1703
▁Company	-11.1704
▁खराब	-11.1704
▁अन्तर	-11.1706
மகஇர	-11.1706
▁க்கலம்	-11.1707
▁भरे	-11.1708
யஇரக்க	-11.1711
▁companion	-11.1712
▁replied	-11.1712
▁lawyer	-11.1712
licit	-11.1712
ஒன்றமல்ல	-11.1713
கண்டவர	-11.1713
அப்பவ	-11.1715
டனம்	-11.1715
तृ	-11.1716
வரங்கள்	-11.1717
वस्तु	-11.1718
▁refer	-11.1718
▁conversation	-11.172
▁Word	-11.172
▁तत्वदर्शी	-11.172
रहित	-11.1721
▁treated	-11.1722
நலய	-11.1722
தர்வ	-11.1726
▁anybody	-11.1728
▁commitment	-11.1728
▁भेंट	-11.1729
சரயன	-11.173
ச்சன்ற	-11.1732
िन्द	-11.1734
▁मध्यम	-11.1736
▁बिंदु	-11.1736
▁User	-11.1736
▁interested	-11.1738
▁33	-11.1739
iness	-11.174
▁receipt	-11.1744
▁अस्पताल	-11.1744
▁sought	-11.1744
▁inherit	-11.1744
ेगें	-11.1746
rish	-11.1754
▁strange	-11.1756
▁अक्ष	-11.1759
ப்படகறத	-11.1759
▁welfare	-11.176
▁ढांचे	-11.176
▁Subhas	-11.1761
▁देखना	-11.1762
▁friendship	-11.1763
हाय	-11.1773
▁कड़ी	-11.1774
கற்பன	-11.1775
¤¦	-11.1777
▁Judge	-11.1777
encies	-11.1779
▁Vir	-11.1781
▁उत्तरी	-11.1782
▁upper	-11.1783
▁अपेक्षित	-11.1785
▁थोड़े	-11.1785
▁actor	-11.1788
स्थापित	-11.1789
Hi	-11.1791
▁te	-11.1791
▁afflict	-11.1793
பர்க்கறன்	-11.1796
தளவ	-11.1796
▁कुफ्फ़ार	-11.1797
how	-11.1799
▁ears	-11.1802
▁seeking	-11.1803
83	-11.1803
▁सुनने	-11.1804
▁Cat	-11.1804
ஏமற்ற	-11.1805
▁reduced	-11.1805
ப்பர்கள்	-11.1806
▁covenant	-11.1809
▁परिचय	-11.1809
▁प्रभुत्वशाली	-11.1809
▁Mail	-11.181
ங்கம்	-11.1812
▁सब्र	-11.1816
GE	-11.182
power	-11.1824
▁technique	-11.1826
▁शुरु	-11.1826
ठे	-11.183
&	-11.1833
ீல	-11.1833
ष्	-11.1834
hand	-11.1834
▁mill	-11.1837
79	-11.1837
▁resource	-11.184
struction	-11.1841
▁enemies	-11.1842
சல்லல	-11.1843
▁अभाव	-11.185
ऍ	-11.185
ढ़ी	-11.1852
▁निराश	-11.1854
▁billion	-11.1854
▁सवार	-11.1856
கழப்ப	-11.1861
राष्ट्र	-11.1863
▁खेत	-11.1863
tribution	-11.1864
▁Five	-11.1866
அவற்ற	-11.1873
Be	-11.1875
▁विविधता	-11.1875
▁ज़िन्दा	-11.1875
cation	-11.1877
▁समझने	-11.1878
▁possession	-11.1879
▁बहा	-11.1881
அறக்க	-11.1885
▁totally	-11.1886
அப்பறம்	-11.1886
▁initiatives	-11.1888
மட்டம்தன்	-11.189
▁grateful	-11.1891
▁sacred	-11.1891
▁Cho	-11.1892
▁terrorism	-11.1892
▁ट्रे	-11.1893
▁ईमानवालों	-11.1894
▁Shan	-11.1898
▁dealing	-11.19
▁पट्ट	-11.1901
▁खिला	-11.1905
▁रूस	-11.1905
▁Qur	-11.1907
▁forbidden	-11.1908
▁Paul	-11.1909
த்தவட்ட	-11.1913
▁selection	-11.1914
▁யல்ல	-11.1916
▁कलाकार	-11.1916
▁संग्रहालय	-11.1917
▁स्वर	-11.1918
▁चली	-11.1919
▁चीनी	-11.192
▁युवाओं	-11.1924
▁संबद्ध	-11.1924
▁George	-11.1924
ப்பகறன்	-11.1926
down	-11.1928
▁हटकर	-11.1929
பற்றய	-11.1929
▁खड़ी	-11.1931
▁सांसारिक	-11.1933
▁अन्ततः	-11.1933
▁கடவள்	-11.1933
fla	-11.1935
▁Bad	-11.1939
nagar	-11.194
▁परिसर	-11.1941
▁चूंकि	-11.1941
▁बारगाह	-11.1943
pad	-11.1944
▁क्व	-11.1945
position	-11.1945
▁बुद्ध	-11.1945
ளய	-11.1948
क़ी	-11.195
▁“”	-11.1951
▁गांवों	-11.1955
▁मुसीबत	-11.1957
யகஇரக்க	-11.1959
சறய	-11.196
मैन	-11.1961
▁delight	-11.1964
▁wine	-11.1971
▁nobody	-11.1974
▁धातु	-11.1974
வங்கள	-11.1975
▁Adam	-11.1978
▁pin	-11.1978
▁றர்	-11.1979
▁None	-11.1981
▁victim	-11.1982
▁चरित्र	-11.1982
▁urban	-11.1982
▁मर्द	-11.1982
▁इल्म	-11.1983
▁48	-11.1987
▁लिखे	-11.199
▁बस्ती	-11.1994
▁sentence	-11.1995
▁walking	-11.1995
▁Sho	-11.1996
कार्य	-11.1997
▁सूख	-11.1998
▁Holy	-11.1999
வரவத	-11.2
त्तर	-11.2003
▁disbelieved	-11.2004
▁Environment	-11.2007
▁nuclear	-11.2007
▁tissue	-11.2007
▁Himalaya	-11.2007
▁turning	-11.2008
▁generate	-11.2009
▁सम्पूर्ण	-11.201
▁इंच	-11.2013
▁खोलने	-11.2015
▁Application	-11.2016
yard	-11.2017
▁विधा	-11.202
▁healthy	-11.202
வழ்வ	-11.2022
दिन	-11.2023
▁visible	-11.2024
▁institute	-11.2024
▁लंबी	-11.2025
▁शिशु	-11.2025
वर्ष	-11.2026
▁Sea	-11.2027
36	-11.2028
▁गुमराह	-11.2028
rri	-11.2028
▁44	-11.2035
▁namely	-11.2037
சந்தத்த	-11.204
▁क़िस्म	-11.2041
▁प्रान्त	-11.2042
▁regional	-11.2044
▁installed	-11.2047
சய்வன்	-11.2047
▁राजधानी	-11.2049
மட்	-11.205
▁सम्बन्धी	-11.2057
▁टैब	-11.2057
▁hole	-11.206
▁Default	-11.2066
▁Actually	-11.2066
பரட	-11.2066
▁Report	-11.2067
▁machinery	-11.2069
ख़ा	-11.2071
நங்க	-11.2072
▁नै	-11.2072
▁दबाव	-11.2073
▁मंडल	-11.2073
▁जम	-11.2075
தரமணம்	-11.2075
▁spin	-11.2077
▁नियुक्ति	-11.2084
▁मिलते	-11.2086
ERS	-11.2087
▁உன்னடம்	-11.2087
To	-11.2087
▁ரச்சன	-11.2088
▁सफेद	-11.2091
▁फै	-11.2091
▁warner	-11.2094
இல்லன்ன	-11.2096
लिस	-11.2097
न्द्र	-11.2098
ल्ली	-11.2099
▁दैनिक	-11.2099
▁filter	-11.2099
▁मिलेगी	-11.2102
गृह	-11.2103
▁drug	-11.2107
▁elephant	-11.2108
▁पृथक	-11.2108
▁सिविल	-11.2108
▁inspired	-11.2109
▁historical	-11.211
லட	-11.211
கடயத	-11.2112
gie	-11.2113
▁formal	-11.2116
▁Security	-11.2116
▁worst	-11.2116
▁prosperity	-11.2118
▁formula	-11.2118
र्द्ध	-11.2122
வடங்கள்	-11.2122
எனக்கத்தரய	-11.2123
▁रहेगी	-11.2124
▁Comm	-11.2128
▁citizen	-11.213
▁demon	-11.213
▁forgot	-11.2133
▁greetings	-11.2133
▁smile	-11.2134
▁Page	-11.2136
▁James	-11.2139
▁chemical	-11.2142
▁अवतरित	-11.2142
▁प्लगइन	-11.2142
pati	-11.2142
▁प्रविष्टि	-11.2144
▁रहस्य	-11.2144
அழகக	-11.2145
▁आहार	-11.2147
▁Official	-11.215
▁idol	-11.215
▁अर्ध	-11.2151
ांकन	-11.2153
▁नेकी	-11.2155
மக்கயமன	-11.2157
எடத்தக்க	-11.2159
▁wherein	-11.216
▁quit	-11.2163
▁Prof	-11.2164
சப்	-11.2165
▁मोबाइल	-11.2167
▁विनष्ट	-11.2167
▁Yo	-11.2168
▁submitted	-11.217
▁समन्वय	-11.2174
▁Financial	-11.2175
▁finance	-11.2176
MB	-11.2176
नायक	-11.2178
OM	-11.2181
▁तयशुदा	-11.2184
▁Press	-11.2184
அதகம்	-11.2186
▁becoming	-11.2187
▁दाख़िल	-11.2192
70	-11.2194
▁Non	-11.2196
▁performed	-11.2196
सिया	-11.2197
▁tele	-11.2197
मिट	-11.22
மட்டள்	-11.22
▁fundamental	-11.2201
¤	-11.2201
உலகம்	-11.2204
▁स्वस्थ	-11.2205
அவ்வளவதன்	-11.2206
▁रोगी	-11.2208
▁इल	-11.2209
▁entitled	-11.2209
▁अस्थायी	-11.2209
zy	-11.2213
▁implement	-11.2214
▁wound	-11.2214
ण्य	-11.2214
▁भेजने	-11.2217
▁railway	-11.2218
▁twice	-11.2218
▁attached	-11.2223
▁सकेंगे	-11.2226
▁zone	-11.2227
அதன்	-11.2227
▁एकमात्र	-11.223
▁lest	-11.2231
▁कही	-11.2235
▁Display	-11.2244
▁Read	-11.2248
▁வறம்	-11.2248
▁Qa	-11.2249
▁ग्रे	-11.2251
वंश	-11.2253
▁த்தத	-11.2255
rib	-11.2256
தரப்ப	-11.226
▁गहरा	-11.226
வட்டம்	-11.2262
▁बाकी	-11.2263
▁सबके	-11.2266
▁प्रथा	-11.2267
▁गेंद	-11.2271
शेष	-11.2275
र्जन	-11.2277
▁मास	-11.2278
▁Pen	-11.2279
▁Class	-11.2279
▁कैसा	-11.2284
▁भग	-11.2284
நண்பர்	-11.2284
MAN	-11.2285
▁दोबारा	-11.2286
▁duties	-11.2287
▁herself	-11.229
என்னவன்ற	-11.2291
ச்சய்ய	-11.2292
▁sec	-11.2295
▁newspaper	-11.2295
▁fought	-11.2295
க்கமடய	-11.2296
33	-11.2298
Oh	-11.2298
இரக்கத	-11.23
▁tar	-11.2301
hir	-11.2301
embl	-11.2309
गू	-11.2311
▁थोड़ी	-11.2312
▁intellectual	-11.2312
PR	-11.2314
▁छुपा	-11.2314
▁Best	-11.2314
▁Human	-11.2316
▁फ़ाइलें	-11.232
▁priority	-11.2323
▁प्रविष्ट	-11.2327
▁switch	-11.2329
ोत्	-11.2334
▁sanction	-11.2338
▁White	-11.2338
▁Mur	-11.2342
▁driver	-11.2343
▁climate	-11.2346
▁आखिर	-11.2347
▁जर्मन	-11.2347
94	-11.2349
▁मिलियन	-11.2349
▁ஏற்கனவ	-11.235
▁மசமன	-11.2351
சீக்கரம்	-11.2352
என்னசய்ய	-11.2353
▁David	-11.2356
▁motion	-11.2359
▁मानवीय	-11.2361
▁वस्त्र	-11.2362
மரத்த	-11.2362
▁मारे	-11.2363
96	-11.2363
▁leadership	-11.2365
▁roof	-11.2365
▁Party	-11.2366
स्‍त	-11.2369
நனச்சன்	-11.2369
▁सुविधाएं	-11.237
फॉर्म	-11.2372
▁charged	-11.2373
▁split	-11.2374
பண்கள	-11.2376
பதக	-11.2379
मार्ग	-11.2381
TS	-11.2383
▁soldiers	-11.2383
▁चेक	-11.2386
படக	-11.2387
▁दिखाने	-11.2387
▁शिक्षक	-11.239
▁Excellency	-11.239
▁अनुग्रह	-11.2392
▁terrorist	-11.2393
வளயட	-11.2395
வட்டய்	-11.2396
▁Yoga	-11.2399
▁2018	-11.2401
▁latest	-11.2403
பனத	-11.2406
▁delete	-11.2406
▁Modi	-11.2407
▁நன்உங்களக்க	-11.2407
▁approval	-11.2407
▁communities	-11.2407
▁zero	-11.2407
▁rice	-11.241
ट्री	-11.2411
pathy	-11.2411
count	-11.2416
▁cloth	-11.2421
▁putting	-11.2425
¤¡	-11.2433
▁मधु	-11.2436
இரக்கங்க	-11.2437
மசமன	-11.2439
▁Foreign	-11.2442
▁Scripture	-11.2442
▁उपयोगकर्ता	-11.2445
▁suitable	-11.2447
▁Rules	-11.2447
▁acting	-11.2449
▁दिव्य	-11.2451
▁seized	-11.2452
ike	-11.2458
▁Women	-11.2459
▁हार्दिक	-11.2459
▁समुद्री	-11.2463
▁prior	-11.2465
OC	-11.2467
▁समझौते	-11.2468
▁सर्वोत्तम	-11.2468
राह	-11.2469
▁संध्या	-11.247
ப்படத	-11.2472
बुल	-11.2472
▁बोस	-11.2473
னஸ்	-11.2473
74	-11.2473
▁खण्ड	-11.2476
▁வளயட	-11.2478
ஹம்	-11.2479
▁Shall	-11.2481
▁जिम्मेदारी	-11.2485
▁enterprise	-11.2485
▁platform	-11.2485
▁अनुसूचित	-11.2485
▁निरीक्षण	-11.2485
▁bought	-11.2485
ச்சர்	-11.2486
ज्ञान	-11.2487
▁Gardens	-11.2491
▁pal	-11.2492
¤1⁄4	-11.2494
▁tourist	-11.2497
தரகறத	-11.2497
▁poem	-11.2498
▁`	-11.2501
▁तुरंत	-11.2503
▁तेरी	-11.2504
▁लाओ	-11.2506
▁द्रव	-11.2507
▁Andhra	-11.2509
▁Ana	-11.2509
▁wearing	-11.251
ரக்கறர்	-11.2511
ஒன்றம்	-11.2511
▁Library	-11.2512
▁although	-11.2512
▁prophet	-11.2512
▁इमारत	-11.2512
▁brief	-11.2512
பறம்	-11.2517
▁Ste	-11.252
▁Er	-11.252
▁विभाजित	-11.252
▁recorded	-11.2521
▁dollar	-11.2521
▁चिह्न	-11.2521
▁profession	-11.2521
▁resist	-11.2522
▁grew	-11.2522
▁colon	-11.2523
மன்னச்சட	-11.2526
ियाई	-11.2527
▁ஜன	-11.2529
▁Perhaps	-11.2529
▁मस्जिद	-11.2529
▁ठोस	-11.253
▁संवर्धन	-11.2531
▁भले	-11.2532
▁शर्तों	-11.2533
கடச்ச	-11.2534
▁Follow	-11.2538
▁Self	-11.2539
NI	-11.254
▁everywhere	-11.2541
அட்ட	-11.2543
▁threaten	-11.2544
▁Think	-11.2547
जैसे	-11.2547
▁arrest	-11.2548
▁pride	-11.2548
▁tribe	-11.2549
▁க்கன்	-11.2551
▁invited	-11.2556
▁abandon	-11.2556
▁सतत	-11.2556
மணக்க	-11.256
▁abide	-11.256
▁वर्गों	-11.2561
▁बनाता	-11.2561
▁निकाला	-11.2562
▁कुरान	-11.2562
▁Light	-11.2564
▁Joseph	-11.2564
▁लिमिटेड	-11.2564
▁सराहना	-11.2564
▁crowd	-11.2564
▁resolve	-11.2564
▁requirements	-11.2565
state	-11.2566
rang	-11.257
▁Reserve	-11.2573
▁summer	-11.2575
▁क़ुरआन	-11.2575
▁Authority	-11.2575
▁Daddy	-11.2577
▁insert	-11.2577
கண்டப	-11.2578
90	-11.258
▁audio	-11.2581
▁எனக்கவ	-11.2581
▁ऑडियो	-11.2582
▁DVD	-11.2582
▁correspond	-11.2582
▁scr	-11.2584
பகணம்	-11.2588
▁संपादित	-11.2591
शोथ	-11.2592
▁இததன்	-11.2594
“”	-11.2595
▁recognize	-11.2598
▁Buddha	-11.26
▁conceal	-11.26
▁जाग	-11.2602
னவன்	-11.2602
▁जै	-11.2605
▁अध्य	-11.2606
▁proved	-11.2608
▁क्रांति	-11.2608
▁senior	-11.2609
▁drunk	-11.2609
▁temperature	-11.2609
கல்யணம்	-11.261
சன்னர்	-11.2612
▁समृद्धि	-11.2612
▁Mil	-11.2613
மரந்த	-11.2613
கழவ	-11.2615
▁Except	-11.2615
▁judgment	-11.2617
▁चेहरे	-11.2618
मगर	-11.2618
▁pillar	-11.2621
▁மட்டள்	-11.2623
▁तारा	-11.2623
▁capable	-11.2623
उप	-11.2624
▁aside	-11.2625
▁வமன	-11.2626
▁ऑंख	-11.2626
what	-11.2629
▁defence	-11.2629
▁intention	-11.263
bling	-11.263
▁मोदी	-11.2632
▁smaller	-11.2633
▁कूट	-11.2633
▁सिंध	-11.2634
▁गिरफ्तार	-11.2635
ணத்த	-11.2636
▁அப்பத	-11.2636
▁wronged	-11.2636
▁पालने	-11.2637
▁latter	-11.2638
▁அப்படத்தன்	-11.264
▁उगा	-11.2642
iva	-11.2645
▁diver	-11.2646
சத்தயம	-11.2646
▁kick	-11.2647
▁आवश्यकताओं	-11.2647
नेवालों	-11.2648
98	-11.2652
▁neighbour	-11.2653
அள	-11.2656
ஆண	-11.2659
ப்பதல்	-11.2661
▁हिमालय	-11.2662
▁tired	-11.2662
ख़ौफ	-11.2662
न्दा	-11.2665
▁சன்னத	-11.2665
▁bigger	-11.2666
▁currently	-11.2666
▁Son	-11.2667
▁लाइसेंस	-11.2671
▁Civil	-11.2671
▁palace	-11.2671
▁बच्चा	-11.2671
▁furnish	-11.2671
ntial	-11.2673
▁FOR	-11.2673
▁1992	-11.2674
cade	-11.2678
▁बुरे	-11.2678
▁खत्म	-11.268
▁Code	-11.2686
▁settled	-11.2686
zz	-11.2687
▁negative	-11.2689
▁हिकमत	-11.2689
▁संपादन	-11.2689
cast	-11.2689
▁Land	-11.2689
▁aspects	-11.2689
▁Click	-11.269
▁whenever	-11.2691
▁றீர்கள்	-11.2691
▁subscribe	-11.2691
▁दोनो	-11.2696
▁आयी	-11.2697
▁Current	-11.2698
▁परेशान	-11.2698
uth	-11.2704
▁End	-11.2706
▁भरा	-11.2707
மீன்	-11.2708
▁कारक	-11.2712
ुष	-11.2715
▁counsel	-11.2715
▁फ़िल्म	-11.2715
பறவ	-11.2716
▁register	-11.2717
FC	-11.2721
▁मांस	-11.2721
akh	-11.2721
▁lucky	-11.2721
▁गहन	-11.2722
▁visited	-11.2723
▁Ever	-11.2724
मूल्य	-11.2724
▁participate	-11.2724
▁बिगाड़	-11.2724
रियल	-11.2727
UL	-11.273
ஆதரவ	-11.2731
எல்லத்தயம்	-11.2732
▁தப்பக்க	-11.2733
▁privilege	-11.2733
▁simply	-11.2733
டஸ்	-11.2734
▁स्वीकृति	-11.2737
▁भावी	-11.2738
கட்ப	-11.2741
▁jinn	-11.2743
மதம்	-11.2749
கீழ்	-11.2749
▁அரச	-11.2751
▁quarter	-11.2751
▁registration	-11.2751
▁अनुमोदन	-11.2751
ன்னசல்ல	-11.2752
ஹல்	-11.2753
▁मार्क	-11.2754
late	-11.2757
▁stayed	-11.2758
फिल	-11.276
▁चौड़ाई	-11.276
▁हिंसा	-11.2761
▁अग्रणी	-11.2761
▁बाधा	-11.2761
▁हट	-11.2764
▁eating	-11.2765
▁archive	-11.2769
▁क़दम	-11.2769
शाह	-11.2772
Comment	-11.2773
▁pest	-11.2776
▁लगाए	-11.2776
आईसी	-11.2776
▁participation	-11.2778
இழ	-11.2783
அன்ற	-11.2786
இலக்க	-11.2786
▁हँस	-11.2788
▁talked	-11.2789
▁आदान	-11.279
என்னன்ன	-11.2793
▁poll	-11.2793
▁continuous	-11.2796
▁politics	-11.2796
▁reckon	-11.2796
▁இவ்வளவ	-11.2797
▁स्वचालित	-11.2797
▁पाँच	-11.2798
बत	-11.2803
▁poison	-11.2806
▁coal	-11.2806
உன்னடம்	-11.2809
▁றய்	-11.2811
▁Alex	-11.2812
बेहिश्त	-11.2814
इंड	-11.2817
▁என்னடன்	-11.2817
கவனம்	-11.2819
▁Tea	-11.282
▁|	-11.282
▁ordinary	-11.2823
▁alter	-11.2826
ifies	-11.2826
தண்ணீர்	-11.2827
▁disk	-11.283
வண்டம்என்ற	-11.2832
▁राहत	-11.2832
कुदरत	-11.2832
▁Although	-11.2832
▁என்றந	-11.2833
▁rub	-11.2834
கண்டபடத்த	-11.2834
▁pipe	-11.2835
வளர்ந்த	-11.2836
▁weren	-11.2839
▁Assistant	-11.2842
▁द्विपक्षीय	-11.2842
▁bug	-11.2842
▁assist	-11.2842
▁faithful	-11.2846
▁सावधान	-11.2848
86	-11.285
▁Chinese	-11.2851
▁orphan	-11.2851
▁leaf	-11.2851
plan	-11.2857
▁Prem	-11.2857
▁स्टेशन	-11.286
nan	-11.2861
▁offering	-11.2863
तू	-11.2866
▁sustain	-11.2866
▁Hall	-11.2868
cycl	-11.2872
रेशन	-11.2876
▁Tribunal	-11.2878
▁डिजाइन	-11.2878
▁सितंबर	-11.2878
▁practical	-11.2878
▁सोचा	-11.2879
▁prefer	-11.2879
▁कॉलेज	-11.2888
lav	-11.2888
வகம	-11.2888
▁achieved	-11.2888
विध	-11.2889
▁उन्होने	-11.289
▁प्रत्या	-11.2892
▁जुड़ा	-11.2893
▁कर्नाटक	-11.2896
:00	-11.2896
▁regulation	-11.2896
▁sexual	-11.2897
च्छेद	-11.2903
corp	-11.2903
सेट	-11.2904
clock	-11.2904
▁प्रदूषण	-11.2905
▁score	-11.2906
▁layer	-11.2908
தப்பக்க	-11.2912
▁मक्का	-11.2912
▁Veda	-11.2914
▁मछली	-11.2914
▁सुनता	-11.292
▁कारोबार	-11.2923
▁ignore	-11.2924
urge	-11.2926
▁परिभाषित	-11.2933
▁चो	-11.2933
▁विद्या	-11.2936
▁बन्दे	-11.2936
▁convince	-11.2942
வரந்தகறன்	-11.2944
▁cease	-11.2944
▁स्टे	-11.2945
ज्य	-11.2947
▁भक्ति	-11.295
▁unknown	-11.2951
▁ticket	-11.2951
பட்டய	-11.2952
▁Bla	-11.2954
rou	-11.2955
िस्तान	-11.2956
क्शन	-11.2957
▁प्रचलित	-11.296
மீற	-11.2961
▁Export	-11.2962
▁thereby	-11.2964
▁फर्म	-11.2964
▁icon	-11.2965
வட்டல்	-11.2966
▁றக்க	-11.2967
▁इंजीनियर	-11.2968
▁Nar	-11.2968
ஸ்ட்ர	-11.2969
▁empower	-11.2969
शासित	-11.297
Co	-11.297
▁seal	-11.2972
தடர	-11.2974
पटल	-11.2975
▁reader	-11.2976
என்றநன்	-11.2976
wood	-11.2977
பரச்சனய	-11.2977
▁रोम	-11.2978
▁recall	-11.2981
क्की	-11.2982
▁जहन्नम	-11.2983
वृत	-11.2989
क़ायम	-11.2989
தற்ற	-11.299
2015	-11.2992
mail	-11.2992
▁covering	-11.2994
gui	-11.2994
ஆச்சரயம	-11.2996
▁அமரக்க	-11.2997
▁जोड़ा	-11.2998
▁डरो	-11.3
ध्व	-11.3004
▁arise	-11.3004
new	-11.3005
▁observe	-11.3005
என்றஎனக்க	-11.3006
▁Railway	-11.3006
▁breed	-11.3006
▁साहित्यिक	-11.3008
▁ऊपरी	-11.3008
▁integral	-11.3015
▁Mighty	-11.3015
▁transform	-11.3018
▁semi	-11.3018
நலம	-11.3018
ஒரமற	-11.3021
God	-11.3022
▁दिसंबर	-11.3024
▁Connect	-11.3025
direct	-11.3026
माला	-11.3026
▁slip	-11.3027
▁ढूंढ	-11.3027
▁बोली	-11.303
▁steal	-11.3034
▁नीतियों	-11.3034
मंद	-11.3036
EM	-11.3037
मेरे	-11.304
▁दर्द	-11.3041
▁principal	-11.3043
▁पार्क	-11.3044
▁कपड़े	-11.3045
▁classes	-11.3051
डीए	-11.3051
▁சறய	-11.3052
▁governance	-11.3054
▁संक्रमण	-11.3054
பகம்	-11.3056
▁Justice	-11.3057
▁ज़ालिमों	-11.3057
ஃபர	-11.3059
▁प्रतिष्ठित	-11.3061
▁पैकेज	-11.3062
▁Gha	-11.3066
▁mobile	-11.3071
▁Dan	-11.3071
▁वकील	-11.3071
▁अली	-11.3075
▁engine	-11.3075
நீங்கள்என்ன	-11.3077
ison	-11.3078
▁स्वाभाविक	-11.308
▁Christmas	-11.308
▁छाया	-11.308
89	-11.3081
▁समूहों	-11.3082
▁பல்ல	-11.3082
அவர்களக்க	-11.309
னய்	-11.3091
▁गुजर	-11.3091
▁enabled	-11.3093
▁bestowed	-11.3097
▁neighbor	-11.3099
▁आउट	-11.31
▁सुनते	-11.3104
ूक	-11.3104
▁ஆனல்நீங்கள்	-11.3106
ஆல்	-11.3107
▁बहुतेरे	-11.3108
▁transferred	-11.311
பலம்	-11.311
▁Nobody	-11.3117
▁adequate	-11.3117
▁lift	-11.3119
▁marked	-11.3122
▁घड़	-11.3124
▁उतारा	-11.3125
▁HTML	-11.3126
▁विपणन	-11.3126
gni	-11.3129
▁Custom	-11.3136
▁suck	-11.3138
▁मुगल	-11.3141
▁wherever	-11.3141
ंडी	-11.3142
▁चिह्नित	-11.3142
प्रदान	-11.3143
▁काफ़िर	-11.3144
இவ்வளவ	-11.3145
▁देखी	-11.3148
▁பரந்த	-11.3149
மண்ட்	-11.315
ाधीन	-11.3157
▁loose	-11.3157
▁innocent	-11.3164
▁agency	-11.3164
▁उतना	-11.3164
▁coast	-11.3165
▁improvement	-11.3165
▁ऊंचाई	-11.3166
▁BC	-11.3166
PC	-11.3167
स्वी	-11.3169
▁Tar	-11.3169
▁cup	-11.317
dium	-11.317
▁facilitate	-11.3173
▁survey	-11.3173
▁Pop	-11.3174
மகழ்ச்சய	-11.3175
▁आजादी	-11.3175
MM	-11.3177
நஜம	-11.3177
▁Whoever	-11.318
ன்றத	-11.3182
clause	-11.3183
▁unable	-11.3188
எனநன	-11.3188
▁repent	-11.319
ette	-11.3191
▁Network	-11.3192
▁biggest	-11.3192
▁guarantee	-11.3192
▁डिफ़ॉल्ट	-11.3192
▁Document	-11.3192
▁agencies	-11.3192
▁Long	-11.3192
्‍या	-11.3192
நனம்	-11.3194
▁finished	-11.3196
▁awareness	-11.3196
▁Disc	-11.3199
▁கதவ	-11.32
▁रेडियो	-11.3203
uous	-11.3203
▁differ	-11.3207
▁drown	-11.3211
cap	-11.3211
▁भ्रम	-11.3213
▁announced	-11.3218
uce	-11.3221
स्थल	-11.3224
▁இன்னக்க	-11.3225
▁containing	-11.3225
▁wonderful	-11.3226
ua	-11.3229
▁identify	-11.323
▁bilateral	-11.323
▁मंदिरों	-11.3235
▁listening	-11.3238
NS	-11.3238
லந்த	-11.3238
▁जिहाद	-11.3239
▁preserve	-11.3239
▁patience	-11.3239
न्या	-11.3244
▁भेजी	-11.3244
ரக்கவண்டம்	-11.3245
வரடங்கள	-11.3245
▁parent	-11.3247
93	-11.3248
▁proportion	-11.3248
हमारे	-11.325
बाल	-11.3251
இரங்க	-11.3251
face	-11.3254
▁describe	-11.3262
रक्षण	-11.3263
योजक	-11.3265
▁धन्यवाद	-11.3267
▁मज़बूत	-11.3267
▁सत्यापन	-11.3267
म्बर	-11.3269
இன்னர	-11.3271
▁चतुर	-11.3274
बान	-11.3275
▁union	-11.3282
76	-11.3282
▁देवता	-11.3284
▁Society	-11.3286
▁manufacturing	-11.3286
▁ड्राइव	-11.3286
▁arrive	-11.3286
▁मुर्द	-11.3293
धु	-11.3294
கடம்பம்	-11.3299
க்கப்பட்டத	-11.3302
மடந்தத	-11.3302
▁गै	-11.3303
▁flower	-11.3305
▁चंद्र	-11.3305
▁Island	-11.3307
▁समानता	-11.3308
जुल	-11.3308
सीसी	-11.3311
▁Pla	-11.3312
பறக்க	-11.3314
▁identity	-11.3315
स्तरीय	-11.3316
क्ट	-11.3319
▁closer	-11.3319
▁investigation	-11.3324
▁दुर्घटना	-11.3324
▁Captain	-11.3325
दर्श	-11.3327
▁रुचि	-11.3328
▁stole	-11.333
▁टिप्पणी	-11.3334
▁ultimate	-11.3334
▁understood	-11.3334
▁याचिका	-11.3334
▁shame	-11.3336
▁चाहेंगे	-11.3337
சய்யணம்	-11.3342
▁believing	-11.3343
▁wheel	-11.3343
▁बजट	-11.3343
rog	-11.3345
▁(5)	-11.3345
EP	-11.3345
पैग़म्बरों	-11.3346
▁commanded	-11.3347
ैक्ट	-11.3349
▁तंत्रिका	-11.3352
ஊர	-11.3359
▁mostly	-11.3361
▁निष्कर्ष	-11.3362
▁Article	-11.3362
▁Frank	-11.3362
71	-11.3369
▁extremely	-11.337
க்கள்கறன்	-11.3371
▁समझे	-11.3371
प्स	-11.3372
▁अन्तर्गत	-11.3373
▁1998	-11.3375
▁लेती	-11.3376
கங்	-11.3378
▁प्रवृत्ति	-11.338
▁Didn	-11.3381
▁witnesses	-11.3382
▁prime	-11.3382
▁older	-11.3382
சய்யலம்	-11.3388
▁Super	-11.3388
wise	-11.3388
▁followers	-11.3391
▁हिंदुस्तान	-11.3391
▁Foundation	-11.3391
▁मसल	-11.3392
▁समझता	-11.3394
▁ज़रा	-11.3398
hmm	-11.3399
மகத்த	-11.34
▁pet	-11.34
▁Invalid	-11.3401
शंस	-11.3401
இரங்கள்	-11.3401
▁defend	-11.3402
▁Ven	-11.3403
▁guardian	-11.3403
ital	-11.3406
▁smoke	-11.341
▁संरक्षक	-11.3412
▁destruction	-11.3413
▁successfully	-11.3413
ायत	-11.3414
▁बाध्य	-11.3417
▁adjust	-11.342
▁electronic	-11.342
▁उद्यान	-11.342
▁चाहा	-11.3423
▁engineering	-11.3427
▁Province	-11.3429
▁restore	-11.3429
▁abode	-11.343
▁உனக்கஎன்ன	-11.3438
▁Prince	-11.344
▁लूत	-11.3441
▁owe	-11.3441
44	-11.3442
▁URI	-11.3443
otic	-11.3444
▁trick	-11.3445
▁Jam	-11.3447
▁noble	-11.3448
▁congratulate	-11.3449
▁jurisdiction	-11.3449
▁अभिलाभ	-11.3449
विमर्श	-11.3449
▁शिक्षण	-11.345
▁invite	-11.3451
▁स्वर्ण	-11.3451
▁எல்லம்சர	-11.3454
▁विहित	-11.3455
வஸ்	-11.3457
▁त्वचा	-11.3458
▁मुंह	-11.3458
▁ரஞ்ச	-11.3458
▁நன்இந்த	-11.346
▁Memo	-11.346
▁फ्रांस	-11.3462
தடவ	-11.3465
ङ्	-11.3468
▁execute	-11.3468
▁वरिष्ठ	-11.3468
▁नौकरी	-11.3468
▁Training	-11.3468
▁solid	-11.347
றதக்க	-11.3476
▁Line	-11.3477
▁shadow	-11.3478
▁पाठक	-11.3479
▁लिपि	-11.3481
▁Rajya	-11.3482
▁सीधी	-11.3482
▁बांध	-11.3484
पिता	-11.3484
▁அதஎன்	-11.3485
▁Kovind	-11.3487
என்பதல்	-11.3489
▁गहरी	-11.349
த்தரந்த	-11.3496
▁proposed	-11.3497
▁पूर्ति	-11.3497
▁அதசர	-11.3499
▁यूरोपीय	-11.3502
भूमि	-11.3502
▁dare	-11.3504
எனவ	-11.3507
▁सामूहिक	-11.3507
▁atmosphere	-11.3507
▁पैमाने	-11.3507
▁निदेश	-11.3511
வரகறத	-11.3514
▁Karnataka	-11.3516
▁attribute	-11.3516
▁कनेक्ट	-11.3516
▁Game	-11.3518
▁distinct	-11.3518
▁सदस्यता	-11.3524
ரய்	-11.3524
जीवन	-11.3525
▁psycho	-11.3526
▁पीढ़ी	-11.3527
ஷன	-11.3528
தனம்	-11.3533
▁tight	-11.3533
▁आएगा	-11.3534
▁blessed	-11.3536
तत्त्व	-11.3536
ள்ளர்	-11.3538
▁prose	-11.3539
ode	-11.3539
▁सीडी	-11.354
பயந்த	-11.3542
▁डेस्कटॉप	-11.3545
मोहम्मद	-11.3545
▁सीमाओं	-11.3546
▁घन	-11.3546
▁सहमत	-11.3547
▁विनिर्माण	-11.3547
ஆகம்	-11.3548
87	-11.3549
▁Uncle	-11.3557
▁बचत	-11.3561
▁साइट	-11.3563
▁क़त्ल	-11.3565
▁grieve	-11.3565
▁electricity	-11.3567
That	-11.3571
▁Sara	-11.3572
▁पिछ	-11.3573
கண்கள	-11.3574
▁traffic	-11.3575
▁जम्मू	-11.3575
▁फ़िरऔन	-11.3575
▁alarm	-11.3575
கடய	-11.358
Yeah	-11.358
▁निष्	-11.3582
▁हमको	-11.3584
▁accused	-11.3584
▁रसायन	-11.3584
▁पासवर्ड	-11.3587
▁treasure	-11.3594
தனம	-11.3595
जितनी	-11.3596
▁शोक	-11.3597
▁अपनाया	-11.36
▁नेशनल	-11.3604
ஜீ	-11.3605
▁रोज	-11.3607
riya	-11.3608
वर्ग	-11.3608
व्यवहार	-11.3611
▁मानना	-11.3612
nav	-11.3613
्यूट	-11.3613
▁absolutely	-11.3613
▁prepare	-11.3614
▁उल्लेखनीय	-11.3614
▁>>	-11.3617
▁पक्षों	-11.3621
▁centuries	-11.3623
▁suspect	-11.3623
▁फ़रिश्ते	-11.3623
▁सदी	-11.3624
▁डॉलर	-11.3624
▁commission	-11.3624
▁असर	-11.3624
शान	-11.3627
▁भरी	-11.3627
மகஇரக்க	-11.3631
▁तत्काल	-11.3633
▁अंतरिक्ष	-11.3633
▁applied	-11.3633
mala	-11.3633
▁‘‘	-11.3635
ख़ैर	-11.3636
▁நன்அவள	-11.3638
▁Server	-11.3638
▁designed	-11.3642
श्री	-11.3643
▁situated	-11.3643
▁compared	-11.3643
ENT	-11.3646
▁recover	-11.3647
▁gathered	-11.3648
▁हितों	-11.3648
தடக்க	-11.3649
அணய	-11.365
97	-11.365
▁आंध्र	-11.3653
▁Always	-11.3653
▁ग़ौर	-11.3654
▁अरबी	-11.3657
आख़िर	-11.3659
▁पूर्वावलोकन	-11.3663
▁exploit	-11.3663
▁माइक्रो	-11.3663
▁sharp	-11.3664
▁squared	-11.3664
यंत्र	-11.3664
▁Isn	-11.3667
▁प्रांत	-11.3667
▁affair	-11.3671
▁rot	-11.3671
▁constant	-11.3671
जिन	-11.3672
्लो	-11.3672
உட்கர்ந்த	-11.3673
▁circle	-11.3673
▁efficient	-11.3673
dir	-11.3675
bble	-11.3676
ऊँ	-11.3678
▁strive	-11.3679
ड़ियों	-11.3679
உரவ	-11.3687
▁supreme	-11.3692
▁मोमिन	-11.3695
யர்கள்	-11.3696
ஹர	-11.3698
▁डूब	-11.3702
▁खाओ	-11.3704
▁बौद्धिक	-11.3707
வீண	-11.3708
▁रै	-11.3709
सिंह	-11.371
मोमिनीन	-11.3712
▁emphasis	-11.3712
▁territory	-11.3712
▁असाधारण	-11.3712
▁Phil	-11.372
▁university	-11.3722
▁अग्रिम	-11.3723
▁உனக்கப	-11.3726
बॉक्स	-11.3727
▁னக்கறன்	-11.3728
▁appeared	-11.3729
▁universities	-11.3732
▁प्रेषित	-11.3732
மரயத	-11.3736
वासियों	-11.3737
्‍व	-11.3738
அதனல்	-11.3739
मुना	-11.3739
▁पल	-11.3739
▁govern	-11.3742
▁प्रतियोगिता	-11.3742
▁प्रारम्भ	-11.3742
▁disturb	-11.3742
▁Bring	-11.3744
▁council	-11.3752
▁Business	-11.3752
▁ritual	-11.3752
▁Jon	-11.3752
▁signature	-11.3753
▁stab	-11.3753
▁knee	-11.3753
▁Anyway	-11.3753
தரத்த	-11.3755
▁humanity	-11.3755
vara	-11.3756
▁mono	-11.3756
▁liquid	-11.3762
உணர்ச்ச	-11.3762
AND	-11.3762
க்டர்	-11.3766
▁node	-11.3769
▁democratic	-11.3772
▁Musa	-11.3772
▁எங்கப	-11.3773
▁मिलाकर	-11.3776
▁reported	-11.3777
▁exclusive	-11.3783
▁hire	-11.3788
▁chat	-11.3789
VE	-11.3789
▁mechanism	-11.3791
▁घाटी	-11.3791
▁ऊतक	-11.3792
அற்பதம்	-11.3792
▁spec	-11.3793
point	-11.3794
▁constituted	-11.3795
▁पहलू	-11.3796
பரள்	-11.3798
▁டக்கம்	-11.3801
▁इंडियन	-11.3801
▁சலந	-11.3805
▁refused	-11.3807
▁discipline	-11.3811
▁forgiving	-11.3811
▁Still	-11.3812
dependent	-11.3812
▁acquired	-11.3812
▁corruption	-11.3814
हृ	-11.3821
▁maintenance	-11.3821
Amendment	-11.3821
▁tribal	-11.3822
▁नवीन	-11.3823
ounce	-11.3823
தம்ப	-11.3824
▁salt	-11.3824
There	-11.3825
▁कष्ट	-11.3825
CS	-11.3826
▁बहन	-11.3827
▁entirely	-11.3829
சல்க	-11.3832
▁मातृ	-11.3833
அன்ன	-11.3835
61	-11.3838
▁banking	-11.384
▁प्रतिबंध	-11.3842
மடக்க	-11.3843
கரத	-11.3848
asi	-11.3849
▁महीनों	-11.3851
தவய	-11.3853
▁बैठा	-11.3857
நலம்	-11.3857
श्य	-11.3858
▁currency	-11.3861
▁इसराईल	-11.3861
▁falsehood	-11.3862
▁उपखंड	-11.3863
வண்	-11.3863
▁planned	-11.3864
▁manage	-11.3864
▁उपज	-11.3864
▁1948	-11.3864
course	-11.3866
நம்பகறன்	-11.387
शासन	-11.3871
▁interview	-11.3872
ங்கன்ன	-11.3873
▁whatsoever	-11.3873
▁span	-11.3875
▁चीजों	-11.3877
ध्या	-11.3879
▁vegetable	-11.3882
▁विरूद्ध	-11.3882
▁संहिता	-11.3882
▁उपकरणों	-11.3882
▁proceedings	-11.3882
▁Ray	-11.3885
▁tube	-11.3889
▁டங்கள்	-11.3891
▁Vishnu	-11.3892
▁फ़िल्टर	-11.3892
▁दुकान	-11.3892
▁फट	-11.3897
▁ஷயம்	-11.3898
▁Swami	-11.39
▁apparent	-11.3902
மறபடயம்	-11.3902
சயல்பட	-11.3902
▁ள்வ	-11.3903
्चर	-11.3903
Ch	-11.3905
ाशय	-11.3907
▁जानवरों	-11.3907
ivity	-11.3909
தடர்	-11.391
▁अमर	-11.3911
▁अक्तूबर	-11.3912
▁Flag	-11.3912
▁celebrate	-11.3913
▁creative	-11.3913
▁Form	-11.3917
क्रे	-11.3918
श्लेष	-11.3923
91	-11.393
▁Again	-11.3932
▁இருக்க	-11.3932
▁तीसरे	-11.3933
▁organized	-11.3934
क्योंकि	-11.3934
ाभि	-11.3934
▁நன்உங்கள	-11.3935
▁fourth	-11.3937
▁helper	-11.3938
▁पुस्तकों	-11.3938
▁अंतः	-11.394
▁எனக்கம்	-11.3941
▁merciful	-11.3942
▁दर्दनाक	-11.3942
▁heritage	-11.3942
▁discharge	-11.3943
▁operate	-11.3943
▁allowance	-11.3947
NC	-11.395
▁Knower	-11.3951
▁surrender	-11.3952
▁दुश्मन	-11.3952
▁सिं	-11.3953
[	-11.3953
▁Full	-11.3956
தயவ	-11.3957
▁Nadu	-11.3959
jee	-11.3962
▁identified	-11.3962
▁फायदा	-11.3962
▁upset	-11.3963
▁நன்உனக்க	-11.3969
▁1000	-11.397
▁distress	-11.3972
▁humble	-11.3973
▁German	-11.3973
▁whereas	-11.3975
▁चाय	-11.3978
▁त्रुटिः	-11.3978
दृश	-11.3981
▁Australia	-11.3983
▁muscle	-11.3983
▁prostrate	-11.3983
▁download	-11.3988
▁भागीदार	-11.3992
▁elder	-11.3993
▁चाहें	-11.3994
னர்கள்	-11.3997
▁अहले	-11.3997
சஸ்	-11.3999
▁informed	-11.4
▁compassion	-11.4003
त्रिक	-11.4006
▁ட்டள்	-11.4009
icide	-11.401
▁पोत	-11.4013
▁parliament	-11.4013
▁operating	-11.4013
▁characteristic	-11.4014
▁grass	-11.4015
band	-11.4016
▁initiative	-11.4017
சல்லவல்ல	-11.4018
▁சமன	-11.402
▁सजा	-11.4022
▁subsequent	-11.4023
▁प्रसंग	-11.4023
▁घूम	-11.4023
क्के	-11.4024
▁elected	-11.4024
घोष	-11.4026
▁ego	-11.4027
▁गरीबी	-11.4029
▁Russian	-11.4032
▁गठित	-11.4034
▁पौधों	-11.4034
▁oppose	-11.4034
ष्टि	-11.4035
▁Load	-11.4036
▁राजस्व	-11.4037
hari	-11.4039
▁competition	-11.4044
▁William	-11.4044
▁Jammu	-11.4044
▁ध्वज	-11.4044
▁kiss	-11.4044
▁Task	-11.4046
▁आज्ञा	-11.4052
கழத்த	-11.4053
▁पंजीकृत	-11.4054
▁favorite	-11.4055
IF	-11.4056
▁solar	-11.4059
ogen	-11.4061
▁Bose	-11.4061
▁बाहम	-11.4064
▁dedicated	-11.4064
▁Standard	-11.4065
சய்ற	-11.407
பர்ட்ட	-11.4074
▁await	-11.4075
▁दावे	-11.4075
अच्छा	-11.4078
▁exception	-11.4079
▁Arabic	-11.4082
▁belonging	-11.4083
▁Process	-11.4085
¤«	-11.4085
கவனத்த	-11.4088
▁कठिनाई	-11.4089
த்தடன்	-11.4089
▁प्ले	-11.4091
அறந்த	-11.4101
▁तत्वों	-11.4105
▁अर्जित	-11.4105
▁दलील	-11.4107
▁crash	-11.4107
▁mock	-11.4111
दर्शन	-11.4119
▁बचाव	-11.412
▁Huh	-11.4124
▁offence	-11.4126
▁Small	-11.4126
▁determine	-11.4127
அதகம	-11.4129
▁publish	-11.4131
▁हलाक	-11.4136
▁examine	-11.4136
▁bath	-11.4137
▁सम्भव	-11.4137
ल्फ	-11.4142
▁गौरव	-11.4143
ரக்கணம்	-11.4144
▁Sind	-11.4144
▁संक्षिप्त	-11.4146
▁भूख	-11.4148
▁तुम्हे	-11.415
प्रेषण	-11.4157
समझ	-11.4159
▁केंद्रित	-11.4161
▁बारह	-11.4164
▁இதஎன்	-11.4165
▁Babu	-11.4165
▁काफिरों	-11.4167
▁जला	-11.4174
ांश	-11.4175
▁Sad	-11.4176
leg	-11.4176
▁chapter	-11.4177
▁missed	-11.4179
▁Green	-11.4184
▁attachment	-11.4184
அவரடம்	-11.4186
▁छोड़ा	-11.4186
बिल	-11.4187
▁sheet	-11.4188
▁audience	-11.4188
▁चुनौतियों	-11.4188
▁मूलभूत	-11.419
டமம்	-11.4193
பர்க்கலம்	-11.4196
▁recognised	-11.4198
▁अभिदाता	-11.4201
▁plate	-11.4201
கட்டன்	-11.4204
▁implemented	-11.4208
▁गाँव	-11.4209
▁प्रत्य	-11.4209
▁anger	-11.4212
▁लाना	-11.4216
▁ईसाई	-11.4217
▁1950	-11.4219
▁administrative	-11.4219
▁divorce	-11.4219
▁shrine	-11.4219
▁tonnes	-11.4219
विधि	-11.4219
▁संभाल	-11.422
▁सहमति	-11.4221
terior	-11.4223
▁गुरू	-11.4223
▁Hyderabad	-11.4229
▁Jews	-11.423
dhan	-11.4233
▁जानवर	-11.4233
▁bull	-11.4238
▁bid	-11.4239
▁temporary	-11.424
▁वाक्य	-11.4241
▁Stand	-11.4242
▁कथन	-11.4248
They	-11.425
▁consult	-11.425
▁deeply	-11.425
range	-11.4255
▁व्यक्तित्व	-11.426
▁प्ला	-11.4261
▁स्नातक	-11.4261
▁अनुज्ञात	-11.4261
▁valley	-11.4261
▁devil	-11.4261
▁capture	-11.4262
▁मादा	-11.427
▁hasten	-11.427
▁hungry	-11.4271
▁Egypt	-11.4271
▁कोविन्द	-11.4271
▁dwelling	-11.4273
स्थापन	-11.4274
▁Gar	-11.4274
ஆய்வ	-11.4276
print	-11.4279
▁sorrow	-11.4282
▁western	-11.4282
▁behold	-11.4283
▁अधिकरण	-11.4289
नारायण	-11.4292
▁idiot	-11.4292
▁occurred	-11.4293
▁pound	-11.4297
▁शर्म	-11.4301
▁Cap	-11.4302
▁ढांचा	-11.4303
▁pursue	-11.4303
▁ழ்க்க	-11.4305
▁वाहन	-11.4305
▁बढा	-11.431
▁एयर	-11.4312
▁नेत्र	-11.4313
▁inaugurate	-11.4313
▁technologies	-11.4313
TION	-11.4316
▁உன்னல்	-11.4316
▁Mac	-11.4317
▁holy	-11.4318
▁hardly	-11.4319
2013	-11.4319
▁योग्यता	-11.4321
வட்டீர்கள்	-11.4322
▁Unknown	-11.4324
▁कक्षा	-11.4326
▁पहुंचे	-11.4326
▁वाणिज्यिक	-11.4326
▁advanced	-11.4326
▁Left	-11.4327
அர்	-11.4331
ावस्था	-11.4333
शोध	-11.4333
க்கமடயம்	-11.4333
▁Everybody	-11.4334
▁bounty	-11.4334
▁intelligence	-11.4334
சய்யப்பட்ட	-11.4335
ரக்கங்க	-11.4336
▁ज़ोर	-11.4336
▁decline	-11.4337
▁दुःख	-11.4345
▁निष्पादन	-11.4345
▁खतरा	-11.4345
▁digital	-11.4345
पास	-11.4346
▁obtained	-11.4347
▁Army	-11.4347
தவயல்ல	-11.4349
▁narrow	-11.4355
▁draft	-11.4355
▁rescue	-11.4355
▁inspect	-11.4356
▁conducted	-11.4363
▁यूँ	-11.4364
▁Whoa	-11.4365
▁steel	-11.4366
province	-11.4366
▁बैंकिंग	-11.4368
▁भो	-11.4371
lateral	-11.4371
▁Pass	-11.4371
▁specify	-11.4374
▁Forest	-11.4375
▁usual	-11.4375
▁Note	-11.4377
▁बेटा	-11.438
▁nose	-11.4382
▁trap	-11.4383
▁मुक्ति	-11.4385
▁Empire	-11.4387
▁उल्लंघन	-11.4387
▁अनुपालन	-11.4387
▁जिम्मेदार	-11.4387
▁Boy	-11.4395
▁beneath	-11.4397
▁oppress	-11.4397
▁लगती	-11.4402
▁fulfil	-11.4403
ella	-11.4404
title	-11.4406
▁श्रमिक	-11.4413
▁panel	-11.4414
வத்தயசம	-11.4415
▁Through	-11.4419
▁पर्यटक	-11.4419
ழப்ப	-11.442
கரன்	-11.4421
▁सकाः	-11.4424
ேன்	-11.4424
ஸ்டீ	-11.4427
▁chose	-11.4428
▁Legislative	-11.4429
▁Iraq	-11.4429
▁argue	-11.443
▁Sil	-11.443
▁இல்லை	-11.4431
▁airport	-11.4432
▁organism	-11.4433
्टर	-11.4434
▁Hmm	-11.4435
▁அதஎப்பட	-11.4436
▁कहेगा	-11.4437
▁प्रभाग	-11.4437
▁spoken	-11.4439
▁Affairs	-11.444
▁औपचारिक	-11.444
▁driving	-11.444
▁lover	-11.444
▁तकलीफ़	-11.4441
▁comfort	-11.4448
graphic	-11.4449
▁परिस्थिति	-11.445
▁pollution	-11.445
▁universe	-11.445
▁डिजिटल	-11.445
வரவல்ல	-11.4451
ण्ट	-11.4452
▁शक्तिशाली	-11.4452
किसी	-11.4452
▁tank	-11.4455
bai	-11.4455
▁repeat	-11.4457
▁reaction	-11.4458
▁conscious	-11.446
▁आलोचना	-11.4461
▁विद्रोह	-11.4461
பகல	-11.4464
▁पड़ती	-11.4464
▁बढ़ने	-11.447
ॊ	-11.4472
▁crisis	-11.4472
▁flood	-11.4473
▁maintained	-11.4478
▁critic	-11.4478
▁शर्त	-11.448
▁royal	-11.4482
▁Choose	-11.4483
▁யவல்ல	-11.4489
மணந	-11.4493
▁miracle	-11.4493
▁teeth	-11.4494
▁organised	-11.4495
▁दायर	-11.4497
गुनाहों	-11.4498
▁settlement	-11.45
मुसलमानों	-11.4502
▁हथियार	-11.4504
▁employee	-11.4505
▁camel	-11.4506
version	-11.4509
▁violent	-11.4515
▁सम्पर्क	-11.4515
▁उपलब्धि	-11.4516
CL	-11.4519
▁noise	-11.4523
▁ईरान	-11.4523
▁stuck	-11.4526
▁Tan	-11.4532
▁पाये	-11.4532
கர்ட	-11.4533
▁electric	-11.4533
▁Chapter	-11.4536
▁Resource	-11.4536
▁परसतिश	-11.4536
வசரண	-11.4537
jun	-11.4544
▁Mala	-11.4545
निशानियों	-11.4546
கள்உள்ளன	-11.4546
▁जयंती	-11.4547
▁संभावित	-11.4547
▁निर्माता	-11.4547
தகத	-11.4548
▁अंतराल	-11.4549
▁Later	-11.455
ux	-11.455
▁चाहती	-11.4552
चु	-11.4552
▁निशान	-11.4553
எங்கரந்த	-11.4555
▁drawing	-11.4556
▁shock	-11.4559
▁पड़ेगा	-11.4565
BA	-11.4566
How	-11.4567
र्ब	-11.4568
▁Disable	-11.4579
▁Japan	-11.458
▁Siva	-11.4583
▁Seven	-11.4587
▁candidate	-11.459
▁stretch	-11.459
उल	-11.4591
சய்யல	-11.4596
▁देगें	-11.4599
▁वंचित	-11.4601
▁snake	-11.4601
▁नवंबर	-11.4601
ட்ஜ்	-11.4603
LY	-11.4605
▁बाग	-11.4605
▁lend	-11.4609
▁thirty	-11.4611
▁अकेले	-11.4611
▁storm	-11.4612
▁pretend	-11.4612
▁shout	-11.4614
▁spell	-11.4615
▁loud	-11.4616
▁दरबार	-11.4616
▁arrested	-11.4621
▁seriously	-11.4624
▁insist	-11.4632
▁asshole	-11.4633
▁combine	-11.4634
▁announce	-11.4636
▁fate	-11.4637
▁लगाना	-11.4639
▁संदाय	-11.464
ifying	-11.4644
▁endeavour	-11.4644
அவளடம்	-11.4645
▁environmental	-11.4648
▁தகப்ப	-11.4651
க்கன்றன	-11.4651
▁पैसे	-11.4652
உத	-11.4654
▁absence	-11.4655
ஞபகம்	-11.4655
▁Queen	-11.4656
ATE	-11.4657
▁जायेगी	-11.4658
▁Mir	-11.4664
▁permit	-11.4664
▁स्वामित्व	-11.4666
▁emergency	-11.4666
▁विष्णु	-11.4666
யகஇர	-11.4667
▁रॉ	-11.4675
யல்இரந்த	-11.4676
▁Urdu	-11.4677
▁employer	-11.4681
▁पैरवी	-11.4682
▁regret	-11.4687
▁आबादी	-11.4687
Mo	-11.469
பர்ப்பம்	-11.4692
▁अमल	-11.4693
▁दक्षिणी	-11.4694
▁march	-11.4694
▁சய்யவ	-11.4695
உடன்	-11.4695
▁कॉन्फ़िगर	-11.4698
▁Food	-11.4698
▁அடட	-11.4699
LS	-11.4703
clusive	-11.4708
▁कृपा	-11.4711
▁kidding	-11.4711
▁snow	-11.4713
ரக்கறய்	-11.4717
▁पंख	-11.472
மரத்தவமன	-11.472
▁glory	-11.472
unk	-11.4724
▁passion	-11.4725
மசம்	-11.4731
▁Industrial	-11.4731
அதகமக	-11.4732
▁pour	-11.4733
▁जनजाति	-11.4734
▁றர்கள்	-11.4734
▁dying	-11.4735
▁Nature	-11.4738
▁branches	-11.4739
▁Author	-11.4739
ियल	-11.4741
▁profile	-11.4742
▁शिल्प	-11.4742
▁निवासी	-11.4745
▁पोस्ट	-11.4747
▁चीजें	-11.4749
ரயன்	-11.4751
நச்சயம்	-11.4752
▁revenue	-11.4753
▁फ़रिश्तों	-11.4753
¤¬	-11.4753
▁properties	-11.4754
▁margin	-11.4754
▁ठंड	-11.4754
▁संचालित	-11.4755
पार्ट	-11.476
ाइज	-11.4762
▁Mughal	-11.4764
▁बस्तियों	-11.4764
▁परम्परा	-11.4764
▁trace	-11.4765
▁सफलतापूर्वक	-11.4765
▁suggestion	-11.4766
worth	-11.4766
vari	-11.4768
▁ன்னத	-11.4769
ाबाद	-11.477
India	-11.4774
▁धारणा	-11.4774
▁Economic	-11.4775
▁analysis	-11.4775
▁category	-11.4775
वालो	-11.4775
क़ुरान	-11.4778
TT	-11.478
ஷர்	-11.4781
▁लेगा	-11.4785
¦	-11.4786
▁nervous	-11.4786
▁पदार्थों	-11.4789
▁thin	-11.479
धीरे	-11.4793
इश	-11.4795
▁database	-11.4797
▁ब्राह्मण	-11.4797
▁समुचित	-11.4797
▁afternoon	-11.4797
▁पंडित	-11.4797
पट्टी	-11.48
▁complain	-11.4801
▁License	-11.4808
▁क़ुबूल	-11.4808
▁विद्यार्थी	-11.4808
▁Orissa	-11.4808
▁bunch	-11.4808
▁छू	-11.4808
lash	-11.4808
▁respective	-11.4811
▁गहराई	-11.4812
गुण	-11.4813
▁flying	-11.4815
chandra	-11.4817
▁substantial	-11.4819
▁जनरल	-11.4819
48	-11.4822
▁Madam	-11.4825
▁Direct	-11.4826
கத்தரக்க	-11.4828
நன்றகஇரக்க	-11.483
னள்	-11.483
▁छुटकारा	-11.483
▁realized	-11.4831
▁तह	-11.4832
▁tip	-11.4833
▁rising	-11.4833
▁Log	-11.4834
awn	-11.4835
▁rush	-11.4836
▁Step	-11.4838
▁yellow	-11.4841
▁Israeli	-11.4842
actic	-11.4843
▁exit	-11.4845
ஆர	-11.4849
யசக்க	-11.4851
▁sudden	-11.4852
▁eligible	-11.4852
▁</	-11.4855
▁photograph	-11.4856
पन्न	-11.4858
▁grade	-11.4862
▁செய்	-11.4863
ॆ	-11.4863
▁virtue	-11.4863
▁prevail	-11.4863
▁इनसे	-11.4866
▁क्रि	-11.4868
▁जगत	-11.4872
▁Buddhist	-11.4874
▁easier	-11.4874
▁रिजर्व	-11.4874
▁गणित	-11.4875
path	-11.4884
▁selling	-11.4884
▁कमज़ोर	-11.4886
▁रिकार्ड	-11.4886
டலர்	-11.4886
▁शिक्षकों	-11.4886
▁emotional	-11.4887
डिया	-11.4888
▁पिछली	-11.4888
சீக்கரம	-11.4888
▁formation	-11.4888
▁sail	-11.4891
▁Baba	-11.4894
▁घुस	-11.4895
▁obligation	-11.4897
நட்கள்	-11.49
▁Wil	-11.4905
▁retain	-11.4905
டறன்	-11.4906
▁Association	-11.4908
▁Principal	-11.4908
▁Regional	-11.4908
▁depth	-11.4908
▁debate	-11.4908
▁मददगार	-11.491
▁Yep	-11.4913
▁Term	-11.4916
▁क्रिकेट	-11.4919
▁Sikh	-11.4921
▁कमरे	-11.4923
▁अनाज	-11.4926
▁पंच	-11.4927
▁Vice	-11.4927
▁स्वीकृत	-11.4928
▁मौलिक	-11.493
ஜஸ்	-11.4931
▁Mill	-11.4931
அப்படத்தன்	-11.4933
▁losers	-11.4933
கட்கற	-11.4934
▁1996	-11.4934
மக்கயம்	-11.4937
▁pig	-11.4939
धारी	-11.4942
▁निष्ठा	-11.4942
▁जायें	-11.4943
▁Until	-11.4944
▁Independence	-11.4952
▁कोलकाता	-11.4952
▁स्मरण	-11.4953
▁इलाज	-11.4954
विचार	-11.4954
▁शेख	-11.4957
▁lake	-11.4961
நட்சத்தர	-11.4964
▁मुल्क	-11.4966
▁Without	-11.4967
DP	-11.4968
னநனக்கற	-11.4968
▁जुड़ी	-11.4973
▁झु	-11.4977
▁1991	-11.4978
▁शरण	-11.4979
கீ	-11.4979
सूची	-11.4981
When	-11.4983
▁grab	-11.4985
▁offline	-11.4986
▁रवीन्द्रनाथ	-11.4986
▁सुसंगत	-11.4986
▁साक्ष्य	-11.4986
▁Center	-11.4986
பரட்கள	-11.4987
▁बनकर	-11.4987
▁सामान्यतः	-11.499
But	-11.499
▁रहमान	-11.4992
▁tall	-11.4992
▁cricket	-11.4997
▁ज़बान	-11.4998
rov	-11.5002
▁रोका	-11.5006
▁स्मारक	-11.5009
வஷயம	-11.5009
நகர்த்த	-11.5013
▁hrs	-11.5013
▁प्राधिकार	-11.5018
▁judgement	-11.5019
▁accomplish	-11.502
▁fifty	-11.502
▁आमंत्रित	-11.502
▁Eastern	-11.5021
▁गर्व	-11.5025
▁तिल	-11.5026
▁निकलने	-11.5031
▁Damn	-11.5031
प्रणाल	-11.5032
▁condo	-11.5039
▁दरिया	-11.504
ப்படவல்ல	-11.5041
ுத்த	-11.5042
निरपेक्ष	-11.5042
▁nurse	-11.5042
▁pledge	-11.5042
▁Multi	-11.5044
▁awake	-11.5047
▁सकी	-11.5047
▁जातियों	-11.5047
▁Video	-11.5048
ப்படவத	-11.5049
IG	-11.5049
▁जानकर	-11.5049
▁nut	-11.5051
▁आदम	-11.5052
▁Card	-11.5052
▁आउटपुट	-11.5054
▁यथास्थिति	-11.5054
கஇரக்கறன்	-11.5058
▁settle	-11.5058
▁डराने	-11.5061
▁நன்உங்கள்	-11.5062
▁tape	-11.5062
न्यास	-11.5065
▁persist	-11.5066
▁आपसे	-11.5066
▁pension	-11.5068
▁Paris	-11.5068
▁आरंभिक	-11.5068
ologist	-11.5071
உலகத்த	-11.5077
▁Bho	-11.5079
▁संस्थापित	-11.508
▁कराना	-11.5086
▁faster	-11.5087
▁किलोमीटर	-11.5088
▁सरपरस्त	-11.5088
▁bottle	-11.5088
०००	-11.5088
▁पौधे	-11.5088
link	-11.5089
▁प्रतिमा	-11.509
abha	-11.5095
▁depart	-11.5095
कालिक	-11.5096
▁dumb	-11.5097
mitted	-11.5102
रोपण	-11.5102
▁1990	-11.5103
▁पीने	-11.5104
▁Cut	-11.5106
▁पहाड़ी	-11.5108
▁familiar	-11.511
▁इलेक्ट्रॉनिक	-11.511
▁बीस	-11.5111
▁प्रकाशना	-11.5114
▁servant	-11.512
வகப்ப	-11.5121
▁wicked	-11.5122
ங்களன்	-11.5122
▁tender	-11.5123
भिन्न	-11.5123
gha	-11.5125
வர்களக்க	-11.513
▁immense	-11.5133
▁प्रयोक्ता	-11.5133
▁चावल	-11.5137
▁खून	-11.5137
▁assess	-11.514
▁छोड	-11.5144
▁exhibit	-11.5145
▁width	-11.5145
र्प	-11.5146
▁spare	-11.5146
▁स्वभाव	-11.5147
▁thick	-11.5148
▁Charlie	-11.5156
▁Abdul	-11.5156
▁Kingdom	-11.5157
phone	-11.5158
ambi	-11.5161
अब	-11.5162
▁Link	-11.5165
▁repair	-11.5167
▁Trade	-11.5169
▁admitted	-11.517
ற்றத	-11.5177
▁Agriculture	-11.5179
▁Deputy	-11.5179
▁penalty	-11.5179
ाहट	-11.5181
▁आमाल	-11.5181
GP	-11.5184
लम्ब	-11.5186
அப	-11.5187
rav	-11.5188
▁दिमाग	-11.5191
▁प्रयोगशाला	-11.5193
▁खिल	-11.5193
▁Mc	-11.5199
▁पहुंचने	-11.52
கடனமக	-11.5203
▁civilization	-11.5203
▁बचाने	-11.5203
▁पूछो	-11.5206
நண்பன்	-11.5206
vati	-11.5206
▁trained	-11.5211
இவன	-11.5211
▁configuration	-11.5213
▁बिन्दु	-11.5213
▁Build	-11.5213
▁अग्नि	-11.5214
▁ornament	-11.5214
▁सिद्धांतों	-11.5215
▁Speaker	-11.5219
▁immediate	-11.5225
▁कन्	-11.5226
bby	-11.5228
உங்களடன்	-11.5232
‘	-11.5232
Come	-11.5233
▁protocol	-11.5236
▁स्वप्न	-11.5236
▁Big	-11.5238
▁Six	-11.5243
▁कुर्	-11.5244
▁trend	-11.5248
இரந்தன	-11.5248
▁आदत	-11.5251
ख़बरी	-11.5257
▁मासिक	-11.5265
▁अर्ज़	-11.5269
▁Support	-11.5271
தவறன	-11.5272
▁रच	-11.5273
நரம	-11.5273
▁ரகறத	-11.528
▁recite	-11.5282
▁infection	-11.5282
▁दिखाए	-11.5284
▁बांट	-11.5286
▁Order	-11.529
▁ग्ल	-11.5293
▁processes	-11.5293
▁convention	-11.5294
▁eternal	-11.5294
▁Sardar	-11.5295
வழயல்	-11.5299
▁motor	-11.5299
தறந்த	-11.53
இரக்கீங்க	-11.53
வரடம்	-11.5302
▁equally	-11.5302
▁Eva	-11.5303
Regulation	-11.5305
▁desktop	-11.5306
▁आचरण	-11.5306
▁instructions	-11.5307
▁टाल	-11.531
stone	-11.5311
तन्त्र	-11.5311
எச்சரக்க	-11.5315
வணம	-11.5317
even	-11.5319
▁deleted	-11.5319
self	-11.5322
▁epi	-11.5323
ுக்கு	-11.5323
ग़रज़	-11.5328
▁बुक	-11.5329
▁Middle	-11.5329
▁Rural	-11.5333
▁Local	-11.5334
ेन्ट	-11.5336
▁Museum	-11.534
▁हैदराबाद	-11.534
▁horizon	-11.534
▁खुर	-11.5345
ल्ले	-11.5346
எனக்கதரய	-11.5346
▁carefully	-11.535
▁संशोधित	-11.5352
▁budget	-11.5352
▁legend	-11.5354
▁armed	-11.5356
லட்ச	-11.5359
▁throne	-11.5364
▁hiding	-11.5366
▁सोने	-11.5367
ाध्यक्ष	-11.5369
गुल	-11.5372
ppy	-11.5375
▁strategy	-11.5375
▁Provid	-11.5375
▁truck	-11.5375
▁venture	-11.5375
▁इन्सान	-11.5375
▁लिखें	-11.5382
▁न्यायिक	-11.5384
संघ	-11.5385
▁harvest	-11.5387
निर्देश	-11.5388
▁lunch	-11.5388
▁rough	-11.5389
Pro	-11.5391
▁prisoner	-11.5397
¤¶	-11.5399
▁Palestinian	-11.5399
▁दिलचस्प	-11.5399
▁whomever	-11.5404
அக்கற	-11.5407
▁झील	-11.5409
▁poly	-11.541
▁buddy	-11.541
▁इनपुट	-11.5411
▁मशीनरी	-11.5418
▁इसीलिए	-11.5422
▁Road	-11.5423
RU	-11.5424
▁एकीकृत	-11.5425
▁dude	-11.5428
▁Test	-11.5433
▁भर्ती	-11.5434
▁saint	-11.5434
▁Talk	-11.5435
▁अनुसूची	-11.5435
बैक	-11.5438
▁bowl	-11.5439
▁दूरस्थ	-11.544
▁Wh	-11.5441
சல்லலம்	-11.5441
▁scan	-11.5443
▁प्रोजेक्ट	-11.5446
▁wander	-11.5446
▁जादूगर	-11.5446
▁साझी	-11.5451
▁Kir	-11.5456
▁thereafter	-11.5457
▁preparation	-11.5457
▁क़रीब	-11.5457
▁charity	-11.5458
▁शराब	-11.5458
▁invoke	-11.5458
▁रास्त	-11.5459
▁facing	-11.546
▁Garden	-11.5462
▁shade	-11.5463
நகரம்	-11.5463
plicate	-11.5467
▁pilgrim	-11.5469
▁Divine	-11.5469
▁खनिज	-11.5469
सऋ	-11.5471
வயச	-11.5479
▁frequent	-11.5481
▁अन्तिम	-11.5482
பதகப்ப	-11.5487
க்கண்டரந்த	-11.5488
ogue	-11.5491
▁सकेगी	-11.5492
▁Judgment	-11.5493
▁उत्तरदायी	-11.5493
▁अकेला	-11.5493
▁thread	-11.5493
▁समाहित	-11.5494
▁fulfilled	-11.5494
▁crack	-11.5495
▁undertaken	-11.5497
पीसी	-11.5497
▁eco	-11.5498
▁warned	-11.5501
▁amend	-11.5505
மட்டங்க	-11.551
▁obviously	-11.5515
ஏற்படத்த	-11.5516
▁cycle	-11.552
MI	-11.5521
கரப்ப	-11.5522
5,000	-11.5522
वर्तन	-11.5524
▁चढ़ा	-11.5525
▁#-#-#-#-#	-11.5528
▁कम्प्यूटर	-11.5528
▁फिलीस्तीन	-11.5528
▁सिंचाई	-11.5528
▁silver	-11.5528
▁बहादुर	-11.5528
▁वैसा	-11.553
▁गहरे	-11.5532
▁வயமட	-11.5536
மக்களக்க	-11.5536
▁outstanding	-11.554
▁sustenance	-11.554
DR	-11.5542
▁फीस	-11.5543
700	-11.555
▁pool	-11.5552
▁illegal	-11.5552
▁opposition	-11.5552
▁scope	-11.5552
▁Settings	-11.5552
raja	-11.5559
▁लड़की	-11.5559
▁Options	-11.5564
▁संतुष्ट	-11.5564
▁महाभारत	-11.5565
वेल	-11.5568
▁Nick	-11.5569
Hey	-11.5571
▁Tele	-11.5572
▁ज़िम्मेदार	-11.5573
▁उच्चतर	-11.5575
▁ब्रिटेन	-11.5576
▁ज़कात	-11.5576
▁विनाश	-11.5576
▁architecture	-11.5577
▁परिवेश	-11.5578
▁fur	-11.5582
▁देगी	-11.5587
▁personality	-11.5589
சய்கறீர்கள்	-11.5589
▁१८	-11.5589
சய்வம்	-11.5594
▁appearance	-11.5594
स्थिति	-11.5598
▁Kolkata	-11.56
▁तमिलनाडु	-11.56
▁ब्राउज़	-11.56
▁Little	-11.56
▁Mun	-11.56
றயல்	-11.5601
ात्मा	-11.5603
▁Baby	-11.5605
▁Cast	-11.5606
▁अत्याचारी	-11.5607
▁lamp	-11.5608
அமப்ப	-11.5609
▁ளம்ப	-11.561
▁प्रसन्न	-11.5612
▁anniversary	-11.5612
TM	-11.5612
▁initiated	-11.5612
▁passenger	-11.5612
▁फज़ल	-11.5612
म्भ	-11.5612
▁Access	-11.5612
▁befall	-11.5612
▁Narendra	-11.5612
▁Pandit	-11.5612
▁அதனல்தன்	-11.5613
▁बढ़ते	-11.5614
▁सावधानी	-11.5615
▁boot	-11.5616
▁lawful	-11.562
▁deity	-11.5622
▁Temple	-11.5624
▁तापमान	-11.5624
கட்டப்பட்ட	-11.5624
▁naught	-11.5625
▁jack	-11.5626
பசங்க	-11.5628
▁Acc	-11.5628
▁Tab	-11.5631
▁composed	-11.5636
▁depict	-11.5636
▁dawn	-11.5638
▁அவனட	-11.5639
▁tag	-11.5641
எட்	-11.5644
▁वाणिज्य	-11.5645
▁knock	-11.5648
▁ladies	-11.5648
▁साहब	-11.5648
▁absolute	-11.5648
▁forgotten	-11.5648
வலங்க	-11.5651
அஞ்ச	-11.5652
கப்பல்	-11.5652
ugu	-11.5654
इंट	-11.5656
▁वर्णित	-11.5657
▁managed	-11.5659
▁Anything	-11.566
▁पंचायत	-11.566
▁gentlemen	-11.566
वादियों	-11.5661
▁वाक़िफ़	-11.5662
पीआई	-11.5667
▁Down	-11.5668
▁पुल	-11.5668
▁prosper	-11.5669
இயந்தர	-11.5672
▁Vidya	-11.5672
▁1997	-11.5675
▁पिला	-11.5677
▁डालें	-11.5678
▁Bangladesh	-11.5684
▁twelve	-11.5684
▁शीत	-11.5686
▁discussed	-11.5688
▁gang	-11.5688
▁Further	-11.5696
▁महाराजा	-11.5696
▁overcome	-11.5696
▁sword	-11.5696
▁Action	-11.57
बन्द	-11.5701
▁Aware	-11.5704
பசற	-11.5706
▁टॉ	-11.5709
▁प्लेट	-11.5709
▁रखकर	-11.571
▁label	-11.5711
तुम्हारे	-11.5712
▁recognition	-11.572
▁हाज़िर	-11.572
▁Pacific	-11.572
▁blank	-11.572
▁अब्दुल	-11.572
▁नवम्बर	-11.572
kash	-11.5721
▁impart	-11.5722
நரக	-11.5723
mod	-11.5724
▁भंग	-11.5725
▁Micro	-11.5725
▁rose	-11.5729
▁Limited	-11.5732
▁Persian	-11.5732
உத்தரவ	-11.5733
▁losing	-11.5734
कथा	-11.5736
laughter	-11.5737
ल्क	-11.574
▁entrepreneur	-11.574
clude	-11.5744
▁अमरीकी	-11.5744
▁shelter	-11.5744
வழந்த	-11.5744
▁உன்னடய	-11.5746
वर्धन	-11.5746
இரட்ட	-11.5753
எதற்க	-11.5753
பரத்த	-11.5753
▁शैक्षणिक	-11.5756
विद्	-11.5758
▁Point	-11.5758
▁१५	-11.5758
▁Table	-11.5763
▁1980	-11.5764
▁उत्पा	-11.5767
▁threw	-11.5768
▁प्रसंस्करण	-11.5768
▁समितियों	-11.5776
WA	-11.5779
சய்யவண்ட	-11.578
▁संतोष	-11.578
▁loyal	-11.5781
கலத்தல்	-11.5782
▁जैन	-11.5784
ப்ஸ்	-11.5787
claim	-11.5788
Let	-11.579
active	-11.5791
सिस	-11.5792
▁satisfied	-11.5793
▁सकारात्मक	-11.5793
▁मुद्दे	-11.5793
मक्ख	-11.5793
வயல்ல	-11.5794
▁आँ	-11.5794
▁बहस	-11.5798
▁सम्मानित	-11.5801
▁शोर	-11.5804
▁हस्तक्षेप	-11.5805
▁Madhya	-11.5805
நசக்கறன்	-11.5808
▁repeated	-11.581
பன்னல்	-11.581
▁दर्जे	-11.581
தீவரம	-11.581
▁विभेद	-11.581
▁आदर	-11.581
▁Doctor	-11.5811
▁धो	-11.5815
▁ढूंढें	-11.5815
ஃபல்	-11.5817
▁equity	-11.5817
மட்டர்	-11.5818
▁Pol	-11.5821
▁हटाएँ	-11.5823
▁drum	-11.5824
▁driven	-11.5826
▁अभ्यास	-11.583
रचना	-11.583
▁Russia	-11.5831
▁collective	-11.5834
ordinate	-11.5834
▁अंधे	-11.5835
आख़ेरत	-11.5841
▁disbelief	-11.5841
▁mandapa	-11.5841
▁uniform	-11.5841
▁Schedule	-11.5847
एनए	-11.5847
word	-11.5851
शिक	-11.5853
▁shoes	-11.5854
▁Kill	-11.5855
▁जायेंगे	-11.5859
▁पुकारा	-11.5866
▁farmer	-11.5868
▁व्यवस्थित	-11.5878
▁ज़रिए	-11.5878
▁व्यस्त	-11.5885
▁BAR	-11.5885
▁Brahma	-11.5885
ncluding	-11.589
▁executive	-11.589
▁संवेदनशील	-11.589
▁scatter	-11.589
▁Happy	-11.5891
▁बोलते	-11.5896
ப்பற்றபச	-11.5899
அனத்தயம்	-11.5901
▁applicable	-11.5903
▁अटल	-11.5909
▁स्तन	-11.591
ागार	-11.5911
▁corporate	-11.5915
▁तरीकों	-11.5915
▁Turk	-11.5915
field	-11.5922
▁automatically	-11.5927
▁रणनीति	-11.5927
▁tourism	-11.5928
▁कीजिए	-11.5929
▁wire	-11.5934
▁aspect	-11.5939
▁license	-11.594
ஏற்பட்ட	-11.594
மனதன	-11.5941
▁प्रक्रियाओं	-11.5951
▁वनस्पति	-11.5952
▁शानदार	-11.5952
▁climb	-11.5952
▁चाँद	-11.5952
▁अनुक्रम	-11.5957
▁bread	-11.5957
டக்டர்	-11.5962
▁Lib	-11.5964
இடய	-11.5964
▁evolution	-11.5965
▁Major	-11.5965
▁यहूदी	-11.5965
▁Due	-11.5965
▁nerve	-11.5965
▁लंबाई	-11.5967
istan	-11.5972
ஃப்ள	-11.5973
लेखन	-11.5975
சகச்ச	-11.5975
वर्ड	-11.5976
தீவ	-11.5978
உழ	-11.5979
எஃப்	-11.5983
शीलता	-11.5989
▁शैल	-11.5989
▁याची	-11.5989
▁lecture	-11.5989
▁Gupta	-11.5989
▁superior	-11.5989
▁आकलन	-11.5989
▁Source	-11.5989
▁Joint	-11.5989
▁telephone	-11.5989
▁रचनात्मक	-11.5991
▁निकालने	-11.5992
वत्	-11.5994
▁कॉपी	-11.5995
▁irre	-11.5995
ஊழ	-11.5996
▁अंकित	-11.5996
▁Software	-11.6002
▁promoting	-11.6002
▁दाहिने	-11.6002
▁रिकॉर्ड	-11.6002
▁विनय	-11.6002
▁intended	-11.6002
2012	-11.6004
Where	-11.601
▁corrupt	-11.6011
▁Off	-11.6013
▁behaviour	-11.6014
▁respite	-11.6014
	-11.6014
▁interface	-11.6015
▁एहद	-11.6015
▁चिन्ह	-11.6016
▁struck	-11.6016
▁ईमानवाले	-11.6019
GA	-11.6021
▁amendment	-11.6027
▁chest	-11.6029
ुअल	-11.603
▁intend	-11.6032
▁refuse	-11.6033
▁affection	-11.6034
amma	-11.6037
▁clay	-11.6037
▁तकलीफ	-11.6038
▁forbid	-11.6039
▁संतुलन	-11.6039
▁Automatic	-11.6039
▁obvious	-11.604
▁wrap	-11.6042
ART	-11.6045
▁mixed	-11.6051
▁compensation	-11.6052
▁geo	-11.6053
क्रा	-11.6056
liness	-11.6058
▁overall	-11.6063
▁Believers	-11.6064
▁Insurance	-11.6064
▁दुर्भाग्य	-11.6064
▁trading	-11.6066
लाइट	-11.6066
தனப்பட்ட	-11.6067
▁प्रतिदिन	-11.6068
्टि	-11.6071
ஆர்வம	-11.6074
▁कर्ण	-11.6074
▁valuable	-11.6077
▁विश्वसनीय	-11.6077
▁प्रसाद	-11.6077
▁श्वेत	-11.6077
ELL	-11.6077
▁Arjun	-11.6078
▁Nations	-11.6078
▁childhood	-11.6079
▁रखती	-11.6083
▁ghost	-11.6089
▁wrongdoers	-11.6089
▁Record	-11.6089
▁divide	-11.6094
विश्व	-11.6097
ात्म	-11.6101
அணந்த	-11.6101
▁मिश्रण	-11.6102
▁बोला	-11.6107
▁कोशिकाओं	-11.6107
▁Scheduled	-11.6109
▁माइ	-11.6109
▁disobey	-11.6114
▁Mount	-11.6114
▁cheap	-11.6114
தழல்	-11.6115
▁declare	-11.612
▁Old	-11.6125
▁arrogant	-11.6127
▁विक्रय	-11.6127
▁औजार	-11.6127
▁उतनी	-11.6127
ள்ளனர்	-11.6128
काफ़िरों	-11.6129
▁fulfill	-11.6131
வீச	-11.6133
▁suppose	-11.6133
பர்க்கற	-11.6134
bhu	-11.6135
सूचना	-11.6137
▁Editor	-11.6139
▁recognized	-11.6141
मुक्त	-11.6142
▁स्वर्ग	-11.6143
▁1993	-11.6144
▁घिर	-11.6148
▁Apostle	-11.6152
▁comprehensive	-11.6152
▁pregnant	-11.6152
▁protest	-11.6152
▁cried	-11.6152
lio	-11.6153
▁Know	-11.6153
▁तेज़	-11.6154
▁craft	-11.6154
▁tale	-11.6155
உடம்ப	-11.6162
मुझे	-11.6163
▁पथभ्रष्ट	-11.6165
▁housing	-11.6165
▁1986	-11.6169
இரக்கறர்கள்	-11.6169
▁अभिगम	-11.617
ரஜ்	-11.6172
அர்த்தம	-11.6174
▁सहारा	-11.6177
नहीं	-11.6178
நம்பக்கய	-11.618
அனமதக்க	-11.6181
▁theatre	-11.6182
ानुसार	-11.6183
▁सच्ची	-11.619
▁pane	-11.619
▁सम्राट	-11.6203
▁mortal	-11.6203
रक्षक	-11.6205
amba	-11.6211
▁hypocrites	-11.6215
▁kitchen	-11.6215
▁vessel	-11.6215
▁Credit	-11.6215
▁visual	-11.6215
ன்னசன்ன	-11.6216
▁sustainable	-11.6219
साई	-11.6222
▁preach	-11.6223
▁mask	-11.6223
ஒட்ட	-11.6225
polytheists	-11.6228
▁वरीयता	-11.6228
▁दस्त	-11.6228
▁गिन	-11.6232
▁spite	-11.6234
▁आँखों	-11.6235
▁extract	-11.6235
तसबीह	-11.6241
▁अवधारणा	-11.6241
▁greet	-11.6247
▁गांधीजी	-11.6248
toxic	-11.6248
ரக்கறர்கள்	-11.6249
ஆனத	-11.6252
▁neglect	-11.6253
▁Chrome	-11.6253
▁LDAP	-11.6253
▁France	-11.6253
UD	-11.6254
▁सुन्दर	-11.6255
IST	-11.6259
▁இவர்	-11.6265
யகம்	-11.6265
▁Password	-11.6266
படக்கத	-11.6267
▁बदकार	-11.6267
▁कार्बन	-11.6268
HAR	-11.6269
▁brand	-11.6269
▁Global	-11.6279
▁bullshit	-11.6279
▁tribute	-11.6279
▁shirt	-11.6279
▁मंजूरी	-11.628
இரக்கன்றன	-11.628
▁distinguished	-11.6281
▁कामयाब	-11.6282
▁ढेर	-11.6282
▁இதல்லம்	-11.6287
ப்பகத	-11.6287
▁passage	-11.6289
ஊர்	-11.629
▁अन्ध	-11.6293
▁apartment	-11.6293
▁winter	-11.63
▁सैन्य	-11.6306
▁1995	-11.631
उनकी	-11.6312
▁pill	-11.6312
ஃபீ	-11.6316
▁reasonable	-11.6316
▁emotion	-11.6316
▁Thomas	-11.6317
¥	-11.6317
▁invalid	-11.6317
▁श्रीमती	-11.6317
▁ளயட	-11.6322
▁advise	-11.6324
▁संधि	-11.6326
bir	-11.6327
▁cancer	-11.633
▁Mohammed	-11.633
▁goddamn	-11.633
बेहश्त	-11.633
ground	-11.6331
இளம்	-11.6331
▁pocket	-11.6332
இதயத்த	-11.6335
மீண்ட	-11.6339
▁encounter	-11.6343
▁enjoin	-11.6343
▁employed	-11.6344
जिसपर	-11.6353
▁लंबा	-11.6354
▁स्टेट	-11.6355
▁Industry	-11.6356
▁substitute	-11.6356
▁लानत	-11.6356
▁warrant	-11.6357
▁भाष्	-11.6357
▁कुफ्र	-11.6358
உபயக	-11.6359
▁सीखने	-11.636
▁KDE	-11.6361
who	-11.6362
▁बुलाया	-11.6366
சய்யவண்டம்	-11.6366
சதந்தர	-11.6366
·	-11.6369
▁Filter	-11.6369
▁smooth	-11.6369
▁दर्शाता	-11.6372
▁Night	-11.6379
▁ऑफ़	-11.638
அற்பதம	-11.6381
tention	-11.6382
▁प्रशांत	-11.6382
▁வேண்டும்	-11.6382
▁Rub	-11.6384
▁संलग्नक	-11.6388
▁Noble	-11.6388
▁श्रोत	-11.639
▁celebrated	-11.6393
क़ुदरत	-11.6395
▁उल्लिखित	-11.6395
▁Manager	-11.6395
▁silent	-11.6395
▁यथार्थ	-11.6395
▁1987	-11.6412
▁Rang	-11.6414
▁grief	-11.6421
▁संदेय	-11.6421
▁तीर्थ	-11.6421
▁domain	-11.6421
▁expansion	-11.6434
▁literally	-11.6434
▁क्रमशः	-11.6434
▁चैतन्य	-11.6434
▁scream	-11.6434
▁उत्सव	-11.6434
▁प्रजनन	-11.6434
ப்பட்டள்ளத	-11.6434
▁index	-11.6434
▁आरक्षित	-11.6435
▁संभवतः	-11.6436
▁प्रतिफल	-11.6441
▁pond	-11.6441
அமரக்க	-11.6446
▁diamond	-11.6447
▁आह्वान	-11.6447
▁liberal	-11.6447
▁पुराण	-11.6447
▁प्रतिकूल	-11.6447
எனக்கத்தரயம்	-11.6448
▁टिकट	-11.6449
▁सम्बंध	-11.6449
▁बडी	-11.6449
▁Grant	-11.645
▁निधन	-11.645
▁हंस	-11.6452
▁जुटा	-11.6453
▁पढ	-11.6455
▁opposite	-11.646
Assessing	-11.646
▁disorder	-11.646
▁दक्षता	-11.646
उसके	-11.6461
योग्य	-11.6468
चरित	-11.6469
▁perceive	-11.6473
▁prompt	-11.6473
▁respectively	-11.6473
▁घनिष्ठ	-11.6473
க்கடத்த	-11.6474
ctivate	-11.6476
▁respondent	-11.6476
वाँ	-11.6478
▁Indo	-11.6478
gree	-11.6478
▁revelation	-11.648
ச்சய்த	-11.648
FF	-11.6481
▁उभार	-11.6485
▁contemporary	-11.6486
▁व्यावहारिक	-11.6486
▁परिभाषा	-11.6487
▁charm	-11.6488
▁Mohan	-11.6489
ेन्स	-11.6491
▁Anna	-11.6493
▁combination	-11.6499
lessness	-11.65
एसएम	-11.6501
▁पुस्तकें	-11.6502
▁enjoyment	-11.6503
▁excited	-11.6512
▁प्रासंगिक	-11.6512
▁जितने	-11.6512
▁transmission	-11.6512
வழ்த்த	-11.6514
▁Asian	-11.652
▁slowly	-11.6522
ஹட்	-11.6523
▁acquisition	-11.6525
▁celebration	-11.6525
▁communal	-11.6525
▁क़ादिर	-11.6525
▁फलस्वरूप	-11.6525
▁टाइप	-11.6525
▁खतरे	-11.6525
▁अर्पित	-11.6525
கட்டள	-11.6526
▁लेबल	-11.6527
▁अभ्य	-11.6527
क्रमण	-11.6529
आज्ञाकारी	-11.6531
இரக்கறள்	-11.6532
▁raw	-11.6536
▁विज्ञप्ति	-11.6538
▁हिन्दुस्तान	-11.6538
▁அய்ய	-11.6538
▁availability	-11.6539
द्वार	-11.6539
அலவலகத்த	-11.6544
▁advised	-11.6544
கடவள்	-11.6546
▁गुट	-11.6546
▁एन्	-11.655
▁फायदे	-11.6551
▁भौगोलिक	-11.6551
▁Afghanistan	-11.6551
▁tiny	-11.6551
▁sharing	-11.6551
▁सिद्धान्त	-11.6552
्च	-11.656
▁Calendar	-11.6564
▁ceremony	-11.6564
▁silence	-11.6564
▁eliminat	-11.6565
▁असली	-11.6566
लिखित	-11.6568
▁ensur	-11.657
▁डालते	-11.6571
சட்ச	-11.6572
00,000	-11.6574
▁Said	-11.6576
▁evident	-11.6577
▁कार्यकलाप	-11.6577
▁अमरीका	-11.6577
▁डिग्री	-11.6577
▁कुशलता	-11.6578
▁एकदम	-11.6578
▁preview	-11.6579
▁सूचित	-11.6579
▁Product	-11.658
connect	-11.6582
▁twin	-11.6582
▁mood	-11.6582
▁Kala	-11.6583
▁recited	-11.6586
மனநல	-11.659
▁Germany	-11.659
▁गंतव्य	-11.6591
▁arbitra	-11.6591
▁distributed	-11.6593
▁परिचित	-11.6593
▁mix	-11.6594
chu	-11.6598
ஆரம்பத்த	-11.66
▁arranged	-11.6602
▁जवाहरलाल	-11.6604
ஒப்பந்தம்	-11.6604
▁अतीत	-11.6604
பயட்ட	-11.6607
▁ratio	-11.6608
▁silk	-11.6609
ज्जा	-11.6609
▁Burn	-11.661
ஜம்ம	-11.6616
▁cluster	-11.6617
▁पीड़ित	-11.6617
▁adapt	-11.6617
▁betray	-11.6617
▁सम्पत्ति	-11.6618
பயம	-11.6621
மட்டர்கள்	-11.6623
▁1988	-11.6624
▁demo	-11.6624
▁ஆஹ	-11.6625
▁संगत	-11.6626
▁angel	-11.6628
organ	-11.6629
▁राजकुमार	-11.663
▁restrain	-11.663
▁व्यष्टि	-11.6631
ग़ैर	-11.6633
परीक्षा	-11.6637
▁शांत	-11.6637
▁मोटर	-11.6637
ரக்கறம்	-11.6638
தற்கல	-11.6639
ீங்கன்ன	-11.6641
▁judicial	-11.6643
▁एहसान	-11.6643
▁क्रेडिट	-11.6643
▁stamp	-11.6644
▁preferred	-11.6644
▁पुकारते	-11.6645
▁Max	-11.6646
▁highlight	-11.6647
▁प्लस	-11.665
ப்பீர்கள்	-11.6653
▁terminal	-11.6657
▁सर्विस	-11.6659
titut	-11.6662
▁weakness	-11.6662
▁संपदा	-11.667
▁framework	-11.667
▁flee	-11.6672
▁सलाहकार	-11.6672
▁Guide	-11.6674
ஆரம்பக்க	-11.6674
▁sensitive	-11.6683
▁गद्य	-11.6687
▁fluid	-11.6687
▁diverse	-11.6688
Moses	-11.6689
▁लिखते	-11.6692
இழப்ப	-11.6693
▁सचमुच	-11.6697
▁fallen	-11.6697
▁चलाया	-11.6697
▁extreme	-11.6699
▁वारिस	-11.6699
▁भगवान्	-11.67
▁प्रवृत्त	-11.6702
▁तुझ	-11.6703
▁बर्फ	-11.6703
பழக்க	-11.6705
▁alternative	-11.671
▁numerous	-11.671
▁क़ाबू	-11.671
அதர்ஷ்டம்	-11.671
▁रेशम	-11.671
▁strict	-11.6711
▁बरसात	-11.6712
dicate	-11.6713
ddle	-11.6715
▁equality	-11.6715
▁hardship	-11.6716
▁terror	-11.6716
▁வா	-11.6718
AYS	-11.6719
▁अनुमोदित	-11.6723
▁उर्दू	-11.6723
▁टर्मिनल	-11.6723
▁relax	-11.6723
▁अखिल	-11.6723
▁pilot	-11.6723
▁Money	-11.6727
▁Yu	-11.6728
Indeed	-11.673
▁gentle	-11.6736
▁इकाइयों	-11.6737
▁बल्लेबाज	-11.6737
▁Status	-11.6737
▁हज़ार	-11.6737
▁राजभाषा	-11.6737
கஷ்டம	-11.6738
▁remarkable	-11.6739
ஆழம	-11.6744
▁खबर	-11.6745
▁प्रबन्ध	-11.6745
கண்கள்	-11.6745
▁Place	-11.6747
▁Jimmy	-11.675
▁तुर्की	-11.675
▁imperial	-11.675
▁pardon	-11.675
▁बाँध	-11.675
चन्द्र	-11.6751
▁Deep	-11.6751
▁आदमियों	-11.6755
▁Market	-11.6755
▁factory	-11.6756
▁दीवान	-11.6757
person	-11.6758
▁efficiency	-11.6763
▁ब्रह्मा	-11.6763
bhai	-11.6768
▁Michael	-11.6777
▁disgrace	-11.6777
▁guidelines	-11.6777
கல்லர	-11.6777
▁दिखायें	-11.6779
வண்வள	-11.6779
▁जागरूकता	-11.6782
மசமக	-11.6787
கறனர்	-11.6787
▁conclusion	-11.679
▁प्रोटोकॉल	-11.679
▁प्रोफेसर	-11.679
▁वर्मा	-11.6798
रोग	-11.6799
▁personnel	-11.6804
आईएस	-11.6805
▁Prasad	-11.6806
▁worshipped	-11.6808
prob	-11.6813
▁वसूली	-11.6817
▁injustice	-11.6817
▁एजेंसी	-11.6817
▁चट्टान	-11.6817
▁दीजिए	-11.6817
ஏன	-11.6818
எங்களடம்	-11.6819
▁प्रस्तावित	-11.6819
नुमा	-11.682
▁Email	-11.6821
உள்	-11.6824
दृष्टि	-11.6828
फरिश्ते	-11.6831
▁Spirit	-11.6831
▁improving	-11.6831
▁प्राधिकृत	-11.6831
▁conclude	-11.6832
ப்பயன்படத்த	-11.6833
▁250	-11.6836
கணவர்	-11.6838
▁उर्वरक	-11.6844
▁क्रियाकलाप	-11.6844
▁हिमाचल	-11.6844
▁नदियों	-11.6845
அளவக்க	-11.6845
छु	-11.6851
▁chargeable	-11.6855
▁peaceful	-11.6856
▁Photo	-11.6857
▁आंकड़ा	-11.6858
▁cheque	-11.6858
▁proclaim	-11.6859
▁ழ்ச்ச	-11.686
बाज़	-11.6861
▁Korea	-11.6864
▁सम्बन्धित	-11.6866
▁socio	-11.6866
उसकी	-11.6868
▁थक	-11.6872
உளவ	-11.6874
▁संपन्न	-11.6874
மகழ்ச்சயக	-11.6874
▁Sita	-11.688
भाषा	-11.6882
▁Devi	-11.6884
பர்ப்பத	-11.6884
▁dialog	-11.6884
▁वैदिक	-11.6885
▁டயம	-11.6896
▁अलबत्ता	-11.6898
▁रामायण	-11.6898
▁composition	-11.6899
▁Mama	-11.6901
▁देशवासियों	-11.6902
▁interpretation	-11.6905
▁कैसी	-11.6908
▁Anjuta	-11.6912
▁Plugin	-11.6912
அதர்ஷ்ட	-11.6913
▁shake	-11.6914
நச்சயமக	-11.6915
▁Font	-11.6917
Okay	-11.6921
▁लहर	-11.6922
▁piss	-11.6925
▁embarrass	-11.6926
▁पुराना	-11.6927
▁relate	-11.6927
▁considerable	-11.6939
▁poetic	-11.6939
▁लोकतांत्रिक	-11.6939
▁True	-11.6939
▁hurry	-11.6939
▁आंशिक	-11.694
▁exact	-11.694
▁Himself	-11.6941
▁pump	-11.6945
PL	-11.695
▁masses	-11.6952
▁colleague	-11.6953
▁despair	-11.6953
▁throat	-11.6953
▁Annual	-11.6953
¥	-11.6967
▁ज़बरदस्त	-11.6967
▁फोल्डर	-11.6967
▁मजबूर	-11.6967
▁किन्हीं	-11.6967
▁Fir	-11.6971
▁कार्यरत	-11.6975
பத்தயம்	-11.6979
मार्क	-11.698
▁swim	-11.6981
900	-11.6982
▁शेर	-11.6983
▁manual	-11.6985
▁मचा	-11.6991
PRODUCT	-11.6994
▁bastard	-11.6994
▁complicated	-11.6994
▁acknowledge	-11.6994
▁resort	-11.6994
கஇரக்கலம்	-11.6994
அவசயம	-11.6995
▁दूँगा	-11.6999
▁POP	-11.6999
▁தரமண	-11.7
▁deaf	-11.7001
▁Street	-11.7008
▁Meeting	-11.7008
▁strip	-11.7009
▁dick	-11.7014
▁appoint	-11.7017
▁merge	-11.7017
▁symptom	-11.7022
▁barrier	-11.7022
எவ்ள	-11.7022
▁subsid	-11.7022
▁constantly	-11.7023
எற	-11.7025
சீர	-11.7027
யளர	-11.7029
▁constitute	-11.703
▁mineral	-11.7035
▁Similarly	-11.7035
▁computing	-11.7035
▁flesh	-11.7035
▁वृद्ध	-11.7036
இரக்கம்பத	-11.7036
▁Shak	-11.7038
▁Program	-11.7044
இறந்தவட்ட	-11.7046
आउट	-11.7047
boo	-11.7048
▁भांति	-11.7049
▁disaster	-11.7049
▁fortune	-11.7049
▁बरकत	-11.7051
▁remark	-11.7058
▁coat	-11.7061
▁Shu	-11.7066
▁stray	-11.7066
இரந்தர்	-11.7068
ட்டீங்க	-11.7068
▁representation	-11.7071
கடனமன	-11.7071
flow	-11.7076
▁felicitations	-11.7077
▁ईंधन	-11.7077
▁मंडप	-11.7077
▁protector	-11.7078
▁salary	-11.7081
▁घास	-11.7083
சந்தஷம்	-11.7086
▁Energy	-11.7091
▁पसंदीदा	-11.7091
▁अस्वीकार	-11.7091
▁disabled	-11.7091
gnome	-11.7092
பசங்கள	-11.7093
▁देखोगे	-11.7096
சமீப	-11.7096
garh	-11.7103
IVE	-11.7104
வண்ண	-11.7104
CB	-11.7104
▁collaboration	-11.7104
▁consumption	-11.7104
▁अक्टूबर	-11.7104
▁योजनाएं	-11.7105
▁Nagar	-11.7108
worm	-11.7109
வழ்க்கயல்	-11.711
உறதயக	-11.7111
▁petition	-11.7114
▁आएगी	-11.7115
▁crush	-11.7117
▁झुका	-11.7117
வட்டள்	-11.7118
▁Legislature	-11.7118
▁derived	-11.7118
▁पारस्परिक	-11.7118
▁pitch	-11.7125
▁Jaya	-11.7127
▁मंगल	-11.7129
அப்படதன்	-11.7129
डब्ल्यू	-11.7132
▁disappoint	-11.7132
▁Jacob	-11.7132
▁गर्दन	-11.7132
பற்றபச	-11.7133
▁Danny	-11.7133
▁Level	-11.7135
அவர்களடம்	-11.7141
END	-11.7145
▁महत्त्व	-11.7145
அடச்ச	-11.7145
▁prominent	-11.7146
▁दिसम्बर	-11.7146
▁संगठित	-11.7146
▁prospect	-11.7146
▁गारंटी	-11.7146
▁टैग	-11.7147
▁Papa	-11.7148
▁आधारभूत	-11.7151
▁Vic	-11.7151
[...]
